[PAD]
[UNK]
[CLS]
[SEP]
[MASK]
!
"
#
$
%
&
'
(
)
*
+
,
-
.
/
0
1
2
3
4
5
6
7
8
9
:
;
<
=
>
?
@
[
\
]
^
_
`
a
b
c
d
e
f
g
h
i
j
k
l
m
n
o
p
q
r
s
t
u
v
w
x
y
z
{
|
}
~
¡
¢
£
¥
§
¨
©
ª
«
¬
®
°
±
²
³
´
¶
·
¸
¹
º
»
¼
½
¾
¿
×
ß
à
á
â
ã
ä
å
æ
ç
è
é
ê
ë
ì
í
î
ï
ñ
ò
ó
ô
õ
ö
÷
ø
ù
ú
û
ü
ý
č
ė
ĭ
ı
œ
ũ
ž
ƒ
ʃ
ˆ
˚
̀
́
̂
̃
̄
̈
̊
̌
̓
̔
̧
̳
̶
̸
͂
͑
;
ά
ή
ί
α
β
γ
δ
ε
η
θ
ι
κ
λ
μ
ν
ξ
ο
π
ρ
ς
σ
τ
υ
φ
χ
ω
ό
ϭ
а
б
в
г
д
е
з
и
й
к
л
м
н
о
п
р
с
т
у
х
ч
ш
щ
ъ
ы
э
ю
я
ѓ
є
ѕ
і
њ
د
ᵒ
ẽ
ἀ
‐
‑
‒
–
—
―
‖
‘
’
‚
“
”
„
‟
†
•
…
‧
‰
‹
›
⁄
€
™
↑
→
⇒
∆
∏
∑
−
∗
√
∞
∩
∫
≈
≡
≤
≥
⊃
⋯
─
■
□
▪
◆
◇
◊
●
◦
✓
➥
⩽
兩
ﬁ
ﬂ
﬚
##e
##q
##u
##r
##o
##p
##f
##i
##s
##n
##a
##l
##d
##m
##t
##z
##g
##5
##º
##1
##4
##3
##ç
##õ
##ã
##c
##b
##h
##0
##2
##́
##̂
##v
##é
##á
##6
##8
##9
##7
##ü
##°
##w
##j
##λ
##ι
##α
##ó
##x
##í
##y
##̃
##̧
##̀
##â
##k
##ê
##ú
##à
##ô
##ò
##²
##̈
##⁄
##ä
##ª
##´
##ε
##ρ
##њ
##ﬁ
##σ
##ν
##г
##ñ
##θ
##−
##ı
##è
##ý
##³
##±
##ì
##ö
##¸
##¬
##®
##◦
##н
##υ
##μ
##β
##ο
##æ
##η
##͂
##ς
##∆
##с
##ᵒ
##̔
##х
##̓
##π
##κ
##б
##щ
##а
##я
##ъ
##ù
##ž
##ω
##з
##р
##о
##и
##л
##в
##ч
##¨
##̸
##τ
##ˆ
##ß
##≥
##⋯
##×
##γ
##™
##ï
##д
##е
##к
##∞
##ø
##у
##▪
##χ
##ẽ
##ﬂ
##─
##≤
##э
##˚
##ξ
##ά
##œ
##ѕ
##î
##п
##ы
##т
##č
##ί
##¹
##◊
##ũ
##∑
##¢
##⩽
##ш
##δ
##̌
##ѓ
##̄
##ë
##û
##є
##й
##φ
##̊
##ĭ
##ό
##﬚
##м
##ϭ
de
##nt
##ra
##os
##es
##ri
##ão
##ad
co
##ent
##ci
##er
##as
##st
##or
##al
re
do
##ção
##ro
##ic
##ar
##id
##ment
da
##en
##is
##re
qu
##it
##in
se
##ti
con
##el
com
##on
in
em
##ação
que
##do
##to
##an
##ist
pro
no
##mento
##em
##cia
##ara
##ta
ar
##ul
##ado
##ed
##ess
ex
##un
##era
##ei
na
##ade
ou
est
##ma
su
##tiv
##ica
##̃o
as
##ncia
##cu
para
##qu
##rio
##ria
##ol
art
os
##di
di
##ão
ju
##il
##ões
ser
##res
##cion
##da
##idade
por
##nte
##ada
##pe
##ç
##ados
##te
##gra
ao
pel
ap
##mp
dos
##ência
##inist
##so
##ente
##ções
##la
##ais
##iz
##le
20
##itu
cont
##ia
não
des
##ito
so
##cess
par
##de
pre
##bl
##gu
##mente
##ut
##go
##im
##us
reg
es
tra
##ção
das
##rib
##stitu
##ab
po
##iv
##cional
##am
##ico
minist
res
at
##vi
##ho
##amento
##eral
##vid
ma
int
##vo
ac
##mo
##pos
##cial
pres
cons
##ras
##são
##adas
##fe
##ver
lei
##cur
dis
##ando
rela
19
##úbl
##ário
##io
an
ent
imp
dire
recur
##ros
##ir
for
pelo
ad
inter
fed
agra
##co
##at
##eg
ca
##ig
##ce
trib
ob
al
##dos
##entes
##for
##ça
##ores
##fic
sob
##der
ter
##ição
rep
au
##tra
##ura
como
##ant
##cl
##ido
dest
pri
nos
201
or
en
process
regi
##ve
##du
##cre
per
federal
fun
pa
##ades
##mentos
to
tribun
##je
ass
##tivo
##ida
segu
nº
##vel
##tiva
##ora
##me
cor
##he
##cor
##pre
just
agravo
constitu
##con
##ens
##rios
##ual
##ru
ii
un
um
pela
cas
10
cu
##ord
tribunal
##enh
poder
##fer
car
##ced
uma
ministro
##ública
arti
##iç
##idades
fa
contra
mo
##endo
deci
##ele
##tos
vi
recurso
comp
##ici
out
##va
med
##itos
qual
##emb
adm
jul
##ca
pen
##min
##ib
##eiro
artigo
espe
fin
##í
sobre
##esso
cri
200
pos
##aliz
gra
aos
##ecu
leg
##gos
ne
sub
##sa
prev
##vimento
nacional
##cio
##est
##end
##ilidade
##no
##rior
##dade
##zo
bras
##rias
##ter
##̃es
##ex
execu
##mos
##nci
00
##sos
##inistra
##mental
##ula
sua
##se
relat
extra
##ga
##eira
inci
val
dispos
administra
##icas
apl
##por
##ária
estado
tem
1º
def
11
auto
cap
ab
##pon
##po
##feri
pr
##cí
##ns
##das
vo
##bal
##ribu
fo
##ntes
pra
##idos
##ju
direito
judi
julg
##ço
presid
##na
##mb
##ec
regimental
pesso
##embro
##quer
##mas
##ran
entre
##ório
##ou
##ordin
trabal
##ix
##cul
públ
república
pl
##nto
##ério
##riz
##erv
##tu
##rig
##resent
##vol
processo
199
inst
efe
##tação
decisão
##tes
decre
##á
##rg
##ncias
extraordin
##tivos
caso
##pera
man
pu
##tica
12
brasil
servi
mes
##cimento
acor
ag
##ação
##tas
##man
##ões
##utos
ind
senh
estab
trans
##pl
forma
trata
of
ele
##ja
##ista
senhor
##icos
compe
mar
será
ord
estabele
##ré
##nico
##iça
##idas
decreto
##icação
ministério
justiça
necess
##corr
##ha
institu
até
geral
##clus
extraordinário
##fica
respe
me
nor
segui
##quis
quando
2º
##ita
ante
##̂ncia
ve
nas
##idera
##graf
##ciais
dist
##ários
##veis
parti
##form
sem
##rá
deste
pol
##vis
mais
lo
parte
##istem
termos
ativ
justi
ra
supre
desta
pará
##lação
##que
hab
##tivas
##anto
parágraf
funda
##cri
considera
##ase
##́rio
##ião
recursos
##ções
##ições
constituição
##ância
const
voto
##cionais
##ização
trabalho
sistem
##forma
##tura
inf
##elho
órg
juri
seu
realiz
desp
##ante
##tar
poss
especial
parágrafo
##rí
le
13
im
pe
sent
##rov
##té
supremo
provimento
iii
15
##ion
##iss
foi
disposto
à
exer
##ur
este
##ne
##anc
##ços
supe
##itar
emp
não
obs
legis
é
inte
às
lu
valor
##ip
##úm
##ória
##leg
##enção
rece
##lement
##lo
refer
prim
qualquer
##tal
##til
lim
##issão
desen
##col
obje
prazo
##ém
acordo
público
##antes
##isc
compet
união
##ís
##imento
go
emb
plan
presidente
inciso
##ber
conf
secre
social
desenvol
penal
14
##eio
conhe
##um
dever
##ular
##ios
publ
##ível
vig
produ
##rito
serão
##iva
##ass
16
dias
18
conselho
##enda
##ific
##amb
mun
servid
##ará
previst
##ene
##menta
julgamento
dez
##cer
tr
decl
civ
##taria
único
##olu
##esa
ins
progra
seg
##ríd
17
respec
ordem
seus
cl
min
##val
000
esta
te
bem
declara
integra
fica
mil
juríd
inde
juris
medida
##ibilidade
##esta
##́m
##ela
orig
##ign
respon
presente
27
##vido
base
justiça
##ulo
faz
##ador
impos
autos
fisc
ta
##rar
fe
##mpri
autoriz
proced
sa
neg
empres
##enci
caput
observ
nov
superior
##gan
tur
3º
##ável
##tado
##ít
21
##termin
##eas
##ências
af
men
opera
relator
serviços
civil
corp
##este
habeas
##alidade
ped
informa
##rado
##ress
##fici
atividades
dep
são
pública
sistema
##esti
28
iv
constitucional
apresent
##istência
##ridade
cent
##esse
##ência
exp
##ál
cada
estabeleci
##árias
##ór
is
determin
meio
30
ver
ementa
util
sup
##clu
econ
tamb
dezembro
proje
form
##cip
1o
##dência
poderá
infra
##íl
##om
##estão
##cus
data
##óp
sal
segun
financ
bene
seja
instru
ado
condi
##endi
31
corpus
st
suas
##ag
##réd
organ
raz
##orden
##ós
##gia
ain
##ódi
##ero
##vent
embar
assim
##ãos
cumpri
créd
##eiros
pes
ato
coorden
promo
ainda
turma
conv
gover
desenvolvimento
##icial
##iar
##ér
processos
##nta
##za
represent
impor
##constitu
##tific
##dão
pag
súm
##edade
24
execução
contro
viol
aus
##eração
##icar
judicia
del
mul
##anh
##inar
mas
##rança
##vida
media
##enho
administração
outras
ro
##ício
loc
defin
##ej
acór
##forme
secretaria
pena
aplicação
##ivo
##posto
inv
##pio
pode
##cent
mer
22
##ime
indi
aco
casos
acórdão
regist
outros
situ
fix
referi
contribu
respons
##ame
4º
maté
legislação
provis
25
comun
apo
cab
preced
id
##rut
##enta
ação
partes
equ
cargos
conforme
198
##pa
##tor
relatório
anos
##ina
##00
aqu
direitos
el
23
recon
empre
##ise
anex
##uais
inclus
mediante
órgãos
cn
mesmo
##ral
pelos
interna
militar
##adores
##ízo
##mit
##rial
códi
diver
##ii
limit
cer
##ín
exercí
áre
atribu
##nde
marco
##fico
partir
total
ha
gara
juiz
##ten
defesa
mag
ela
##lementar
##erais
##tados
cond
origem
##mon
##aneiro
##olo
##ndo
##endimento
tj
código
##rit
estados
##constitucional
##cação
todos
maio
súmula
alt
corte
la
estad
relato
concess
##cont
26
grau
amb
##imo
deve
fal
quanto
seguintes
##ital
garant
##cado
particip
##cios
fora
##car
pesquis
matéria
##ias
##enas
##ília
serviço
pessoas
docu
aval
dev
ano
##ença
exercício
##icado
##éc
##mbito
##abilidade
sentido
##mais
##ncí
servidores
##cesso
##rutura
próp
5º
anterior
prof
##tro
princí
##mar
resul
##formidade
##indo
##ição
##tamente
stf
região
neste
téc
sendo
segurança
##ações
##vada
##ática
destin
2o
mé
##dio
aut
vist
primeira
29
pagamento
##ive
regime
normas
uso
ba
##odo
##tri
crédito
conformidade
tenh
##mun
##ficas
janeiro
acomp
##pios
decorr
pessoa
quad
ações
##lio
edu
reconhe
##iver
provisória
##ba
cust
ausência
##ecer
##ensa
nu
interno
pas
##ça
##osa
##pend
mai
substitu
##ês
##ôm
mu
nego
##ótes
##ipótes
##icí
##tidos
lhe
pedido
crimin
sus
aprov
lib
caus
atu
##ub
perí
utiliz
cid
##tic
hipótes
anexo
inclusive
entidades
soci
ata
atos
##rido
demais
também
##bora
precedentes
declaração
tec
há
magist
processual
exig
##nica
órgão
embargos
disp
##vas
presidência
##vante
refere
requis
##mpl
norma
vez
executivo
via
mant
conced
brasília
region
##lex
##bil
si
mate
competência
já
independ
controle
##tada
fins
aplica
##órios
##sas
condições
##reza
prod
quais
##ulação
benef
legal
orça
preju
fat
tendo
propos
essa
ministra
##pri
seguinte
âmbito
plen
sol
rio
##vog
corre
##if
##elh
medidas
cumprimento
deverá
apenas
##pru
tecn
país
##rada
##ender
##cussão
2015
##rados
##igu
##tamento
cnj
tempo
##úde
##aram
jurispru
municí
econôm
##tin
gru
regula
altera
ministros
mon
informações
vista
anál
maior
##inh
exce
aplic
##ch
saúde
##ission
foram
judiciário
cp
ponto
concessão
outro
relação
paci
natu
event
##ino
pessoal
conden
##and
##gem
estadual
bar
dados
bens
são
##rélio
natureza
aurélio
ed
análise
##cel
sido
comissão
acompanh
recor
ren
##iação
##emp
trabalh
##gn
apre
valores
##ôn
esse
tre
##gr
receb
##́bl
desde
estrutura
##çamento
35
##ge
##duz
33
jurídica
cul
discu
##tante
##jam
segundo
nega
set
##jo
##20
vis
##tico
cur
judicial
rec
eu
vin
pod
ci
governo
jun
den
##embros
##tivamente
##ira
##egu
após
fim
##respon
abri
isso
op
ori
va
fiscal
empresa
cargo
##ende
demon
demonst
públ
##culo
##tações
membros
##ráficas
adi
perman
##õe
##dam
##ima
poderão
planej
##vor
##alização
##mentação
programa
somente
apro
##can
pelas
rel
pat
previd
relacion
gestão
administrativo
red
quadro
impe
orçament
encont
##dades
##pro
##cido
##ên
quant
produtos
2012
40
tribunais
##ice
investi
resolu
##imidade
capa
indic
##bat
despro
prisão
fato
ch
##pec
conju
transpor
##tanto
##dor
aleg
34
inform
ade
ident
junho
atividade
registro
provid
peri
acesso
50
correspon
estu
inclu
estes
##esas
##ças
manif
conhecimento
##ciamento
paciente
##ciação
passa
período
projetos
tal
reper
##bilidade
##áveis
##íveis
##riores
##nd
veri
tribut
procu
cir
sust
elabora
196
esp
hu
polí
remun
objeto
orçamento
##ing
jurisprudência
##rang
##tificação
especí
liber
agravante
ambi
propor
##eiras
84
##nos
empresas
##dia
pass
san
##et
distrito
dje
alí
interess
##ivos
##via
##óg
prevista
despesas
está
##imentos
plano
hipótese
##ntos
ref
##ifica
ofensa
dois
modo
agravada
compete
julho
organiz
tít
100
##́ria
princípio
crime
##dente
prote
##ux
escol
má
difer
37
02
mín
human
mod
us
32
vigor
hou
2011
##opera
direta
##té
educação
##almente
jurisdi
grande
especi
efeitos
##ff
argu
mercado
exist
impetra
sociedade
ress
197
área
##cas
2009
##terior
programas
##corre
tax
unidades
##com
pesquisa
##ki
subs
igu
interesse
##her
dia
##estion
ir
regul
funcion
repercussão
agr
dent
necessidade
requer
mora
permit
adequ
liberdade
##itas
profission
juízo
dura
du
razões
favor
reex
impu
novembro
núm
conta
complementar
enqu
##men
autoridade
notas
suje
deman
class
##ícios
##irm
outra
##âncias
arts
trt
responsabilidade
distribu
interpre
##just
##tadas
questão
decis
projeto
exclus
ale
razão
nome
princi
##utel
45
tor
prestação
##cup
atual
express
##oli
##rim
36
##posição
local
cin
empreg
sess
##ses
deverão
acordam
##ubro
tex
##ás
vistos
judici
cara
obrig
##lti
##tem
coopera
##ram
##fere
expl
ordin
susp
exposto
outubro
publicação
grupo
fam
##nea
fatos
gu
toff
toffoli
##ticas
discutidos
##ares
assegu
##ferência
fazenda
##rog
porque
##ár
regional
relatados
disposit
portanto
##cun
cole
##inha
ficam
setembro
##mpre
##berto
reexame
servidor
priv
tenha
cpc
##rin
ocorr
ino
infraconstitucional
contrato
##omia
85
promover
recla
causa
##gresso
##̂ncias
##reg
tecnolo
##encial
incidência
primeiro
imó
segunda
fundo
6º
diret
exame
##cil
##riga
final
##ificação
imposto
ens
##elo
instrumento
sul
multa
públicos
tab
polít
dispon
60
previstas
planejamento
regra
internacional
inex
43
the
camp
inicial
##oração
todas
segue
##iu
desemp
respeito
##ramento
requisitos
provas
nesse
2013
ali
operações
41
##iliar
##estão
##tividade
##tocol
subme
54
previstos
devida
##ém
aux
núm
menos
##dentes
julgado
impugn
luiz
90
03
munici
##enhora
39
2016
anal
estra
entendimento
protocol
##dica
previsto
##ído
##miss
tes
serem
federa
efeito
disposições
obriga
só
proferi
revis
senhora
superv
orient
sentença
dom
2010
ban
ressal
amp
##agem
93
ti
##crição
38
279
apura
tit
ensino
##plo
terc
convenção
independência
##are
novos
considerando
##tiz
##missão
assin
comer
aber
##mação
##ridades
incisos
afas
2014
solici
asso
avaliação
sejam
envol
fundamentos
imposs
sede
pré
finan
criminal
implement
violação
55
01
conjunto
capaci
unan
sim
##ível
44
cre
unanimidade
62
paulo
mencion
vir
número
liv
cento
##gosto
47
##toria
polí
territ
48
taqu
##́s
##entemente
percent
3o
baix
públicas
##mes
atribuições
##ológ
diante
agosto
##cam
2017
recurs
nova
##istas
##fa
constru
taquig
sign
taquigráficas
diz
individ
bus
##cida
pois
##erva
##éci
69
produção
##ibil
##icardo
we
n°
organização
49
abril
eleito
distância
ileg
59
execução
mé
equip
ho
funções
circun
42
possu
##dit
ge
cultura
##iqu
recorr
legisla
##eni
rosa
88
prova
simpl
2006
além
administrativa
vincul
##lu
ocup
##dução
##ída
probat
carac
7º
ce
texto
votos
06
mesma
##pal
##entado
situação
vigo
assistência
possibilidade
cal
##edia
prejuízo
63
##tou
##para
##iciais
antes
##clusão
financeira
##artamento
##cipl
66
##ança
compre
parcial
inconstitucional
conte
estat
especiais
comprov
procedimentos
carre
publicado
tema
##ite
##ac
liminar
seria
receita
jo
março
entidade
design
nesta
taxa
oficial
46
manut
instal
prevent
cautel
gerais
##rem
vigência
##itação
##vereiro
também
##curso
meses
consul
cará
apos
federais
concre
política
benefici
eventual
vii
garantia
weber
##tros
fux
caráter
##ine
##gua
##erá
contin
##ensão
tais
70
compro
apoio
##uto
alcan
desempenho
fevereiro
61
reque
desse
interpretação
redação
barros
limites
documentos
80
71
acer
roberto
##ração
exped
cabe
banco
##lant
52
desa
xx
durante
negar
##cos
##̂n
fundament
##cra
hon
legais
##umo
áreas
##zes
verific
impossibilidade
impro
atendimento
lev
instituto
procedimento
che
tele
vigorar
regulamento
ved
contas
capital
unidade
fer
53
ant
material
##arão
51
algu
todo
contribuição
departamento
##ws
escri
dispõe
transporte
revel
##vidas
brasileiro
##estionamento
origin
circunst
mínimo
excel
##isco
venci
título
maioria
##tr
imedia
diretriz
previdência
##dado
##íti
contratos
##sia
##uta
09
central
sempre
municípios
participação
coordenar
bo
respectivos
constantes
81
barroso
relação
##ições
serv
jurídico
cár
##postos
##izar
gestão
##rovér
ricardo
dá
fil
propri
dessa
seguimento
existência
##́r
artic
rea
novo
56
##itiva
##́rias
titular
inad
##culos
98
controvér
solu
anual
rele
objetivo
confl
revog
econômica
fundamento
momento
restri
##tantes
leis
lú
##íst
73
discipl
97
fá
2018
realização
68
lúcia
indu
lew
##wski
##adamente
05
ener
supervis
lewando
rura
instituições
lewandowski
ix
cármen
ora
preventiva
am
podem
64
cinco
manutenção
##tual
##eros
vara
dentro
##ulas
mend
simples
curso
tecnologia
efetu
brasileira
benefício
decorrentes
57
continu
proposta
hom
mulher
espéci
linha
reun
fís
04
65
pop
despesa
##son
102
recorrido
á
renda
##́ri
##asse
deix
encar
sin
lit
mens
providências
74
##tensão
comit
aqui
mendes
87
cele
políticas
08
consign
fazer
igual
99
07
conver
dig
inconstitucionalidade
autorização
sistemas
relativas
excelência
daqu
aci
##ídos
58
##̂m
eleitoral
##ismo
78
col
relatora
tenham
assu
tri
imped
município
natura
tabela
advog
76
magistrados
##gress
gil
##ona
judiciário
##tando
humanos
competente
máx
controvérsia
##sões
##́fico
pris
mont
8º
##riais
justific
função
assent
##rida
indire
##́rios
indust
próprio
press
utilização
deno
##be
diretrizes
produto
az
conclu
judiciais
últi
qualidade
##gar
resid
reforma
às
devido
modi
##ana
ness
risco
artigos
comercial
estabelecimento
reflex
91
##esc
trâ
depo
##tre
território
mérito
contr
necessário
sociais
demo
resta
##tação
##ulos
exem
67
##térios
jurí
devem
estabelecer
necessários
encam
##eles
bás
##ização
orçamentária
congresso
adu
vol
##maz
75
documento
alínea
sessão
gilmar
perce
efetivo
##vidos
luís
expor
incor
##ário
##arem
atra
##ças
inden
89
##ônio
##́st
apel
cr
96
respectivo
exterior
pad
##nsito
prática
individual
ina
impl
teo
##icia
critérios
proteção
exam
constitucionais
79
univer
relatório
observado
percentual
nacionais
muito
##qü
configu
##posta
ações
##ércio
cuja
recorrente
4o
aquis
revisão
##vio
1°
##tido
##ece
86
economia
ur
referido
##úncia
##terna
2008
95
ame
nem
##dição
##ide
##atória
##icações
remuneração
analis
assist
##bate
##qui
comitê
possível
demanda
##gação
##dores
##ú
coleg
finalidade
implant
##udo
viii
conce
##inte
exclusiva
probatório
serviç
limite
cál
profissional
cooperação
conse
evid
ocorre
##riamente
protocolo
acres
interposto
enquad
técnica
sustent
##ute
83
elementos
falta
respectivas
excep
comércio
energia
informação
ofício
and
termo
mor
mês
2020
##amentos
92
princípios
toda
##és
##amente
constante
indeferi
cob
##iado
confere
sp
77
estabelecidos
abs
interm
##enso
tanto
##tion
gera
##cad
devidamente
cois
pratic
denomin
ambiente
##ental
##mentar
##eno
três
##rea
il
fl
##irá
carta
fiscalização
ordinário
insu
94
195
sant
1990
campo
pressu
trânsito
produz
provido
internacionais
concurso
funcionamento
##ves
relativos
onde
consum
##íci
reit
azim
parecer
estabelecidas
nível
2007
2019
firm
sab
cautelar
jurisdicional
quantidade
tipo
control
encaminh
teor
incorp
admit
dar
comum
##tário
permanente
espécie
72
dotações
diretor
##ciado
82
plenário
créditos
##vendo
número
cálculo
aposentado
univers
partic
gros
2001
##ossa
tom
feito
coordenadas
exercer
já
estudos
cel
##tida
sufici
resultados
assess
##ál
##crá
atender
##atório
##êm
institucional
##amos
condu
até
##rador
caracte
acus
resolução
arre
vigente
fonte
##vul
promoção
delib
manifest
##́g
trá
##ival
atuação
própria
técn
instituição
técnico
implementação
dí
lon
recol
##izado
forne
##zos
audi
financeiro
terá
setor
##ront
integrantes
aumento
2002
##elas
##itados
houve
região
pertin
mandado
##́p
##ins
##rimônio
conselh
aer
necessárias
instância
integral
objetivos
remunera
2004
agente
crimes
inexistência
acol
afir
oficiais
cadas
consol
##mis
duas
9º
forem
celeb
##idação
estabelecido
formação
2000
##ricul
honor
espa
correspondente
##voc
estrang
##itado
deneg
financeiros
recom
azimute
suplementar
##́c
##ano
gráfico
cujo
entra
bas
##dico
tratamento
vida
refor
prio
patrimônio
##ências
federativa
acompanhar
mos
ampla
resultado
conclusão
prequ
item
dirig
##sto
obrigações
##comp
hc
reclamação
obras
militares
identific
imóvel
##port
encontra
habil
estar
diretamente
inicia
conhecido
##étri
##eia
##edor
autoridades
101
reconhecimento
alegação
pesquisas
apreciação
##par
referida
equival
carreira
geo
anál
urb
##ze
##tição
##atro
##has
realizada
1998
priva
##éu
autorizado
ampl
##blem
hist
mato
realizar
realizadas
particular
prop
devendo
nenh
decisões
essas
fático
grosso
houver
significa
benefícios
##tego
##itada
indis
magistrado
transferência
alega
rural
##izada
figu
##vam
pron
dispositivos
cient
aspec
##pais
resolução
conduta
daí
##encia
insta
apelação
operação
julgar
haver
##ídas
juizados
adqui
1991
##riedade
reflexa
ciência
custo
##cidos
catego
arqu
financiamento
##vação
números
nul
enf
decidi
1997
regras
responsável
invia
lic
##ris
##portun
fra
sustenta
5o
##enciais
##ismos
contratante
##ena
considerada
interesses
deferi
países
destinados
exemplo
alterações
salvo
esses
##ello
divul
então
norte
praticados
ú
real
exclu
gratificação
adicional
parcel
juros
problem
##dar
##tórios
xii
procurado
##ticos
tiver
decid
jus
##eram
##dito
2003
recolh
import
câ
##adora
público
desprovido
##órias
apont
secretário
redução
1995
máximo
relações
##tório
extin
oportun
adol
planos
representantes
##erante
prov
preci
fundamentação
##imos
referidos
junto
reduz
agricul
suspensão
dispositivo
##idor
aquisição
vossa
quatro
jurídicas
propriedade
regular
determinar
quaisquer
##cula
##enha
ajust
além
perí
específica
mono
liqu
##rica
cidad
luc
##ários
juí
torn
há
importação
suma
tráfico
##xto
prequestionamento
relacionados
fase
impetração
análise
parc
referentes
minas
comunicação
adolesc
##icidade
celso
ven
efici
facul
lici
auxiliar
metas
##rogas
decorrente
##ço
quem
aposentadoria
##ficos
##rina
eletro
tecnológ
mello
ger
er
veí
prece
##des
##hes
##̂s
##iação
emprego
familiar
regionais
vant
##ala
194
compens
2005
excepcional
##tid
aprovação
direção
instrumentos
indireta
1996
condenação
1999
membro
##rou
ocorrência
subse
concedida
colo
##́veis
incent
##ervação
montante
pror
enquanto
recursal
metros
cand
1988
##cidade
##ís
relacionadas
ense
convên
##mul
cheg
venda
pens
emit
embora
##tais
pequ
está
depend
##gamentos
exclusivamente
assuntos
cong
##vado
nulidade
##eios
feita
regimento
imóveis
manda
vezes
quo
prision
construção
outor
estraté
comar
##riam
recebimento
clá
##rimento
eles
contribuições
natural
ofer
acompanhamento
##́vel
##ouro
br
corr
##iste
contrário
acerca
assessora
trf
on
descri
infe
caracteriz
##éb
monito
integração
superiores
informações
agentes
face
##pção
podendo
fund
##inas
##cab
##estões
atribuição
recu
are
reserva
proferida
##itivo
##int
usu
##ôr
impugnado
##abil
##ms
localiz
tratar
arrecad
fic
menor
pública
honorários
mec
intim
##cendo
##̃os
classe
circunstâncias
##cumb
diversas
##idados
era
vinte
respectiva
##volu
demonstra
##enção
capacidade
##gias
mostra
sat
afe
trinta
período
##21
1993
alterna
procuradoria
ol
ace
##úst
estaduais
##íqu
educa
econômico
drogas
encargos
##uco
previdenci
##ilo
coordenação
distribuição
manter
##tização
hipóteses
inadmiss
financeiras
depois
orçamentárias
defici
##cho
modific
entrada
exceto
municipal
##vos
argumentos
perante
##esto
##uso
assegurar
manifesta
##ndice
stj
fiscais
haja
melho
denúncia
rede
posterior
ip
prévia
profissionais
certific
##gência
##endido
tesouro
garantir
considerado
equipamentos
##ipe
##icação
chefe
exti
início
##́tica
##dios
companh
acima
##estrutura
ví
digital
##ósito
poderes
coisa
interposição
condição
pun
serviços
##ressão
substitui
aper
melh
cidade
ai
##ificado
elaboração
aju
1994
test
tese
##tude
ple
##izados
fir
centro
dada
especifica
recursais
especialmente
##crática
propostas
crian
emenda
##guar
aprovado
luz
elétri
subst
dívida
##ts
2°
próp
volu
traz
senten
obst
existentes
agricultura
##peri
cláus
gen
##ações
##cada
busca
diretoria
anteriormente
ocor
carga
##ronta
decisões
fixação
sil
média
violência
processuais
questões
nessa
estiver
##tores
estraté
fol
preen
tributário
aberto
articulação
##emais
df
tempor
rad
##bit
consequ
ev
gest
meios
discri
receber
rev
fé
terras
cientí
deleg
gas
perten
razo
substituição
##todo
indúst
relativa
cursos
##ílio
advogado
arm
física
legit
##ceu
previs
títulos
inferior
relev
casa
trt1
sof
aé
##utu
comiss
pec
##gráficas
fre
parcela
bol
##ial
anteriores
diss
amaz
delibera
força
apar
##iminar
eletr
##voca
alien
##mentais
í
##bo
procurador
disso
##cons
jurisdição
déb
quer
##ixa
##comun
grupos
alteração
comple
materiais
##edades
especific
##inci
##rão
colegiado
prorrog
##roga
abre
##hos
##xim
visando
relatoria
concil
competências
seguro
##1o
desses
calcul
##gio
emin
sele
gab
contexto
pá
depos
novas
custos
##gado
apresentar
ób
##mara
##fi
##rir
excesso
impac
próprios
lado
##dic
aplicada
diversos
pap
área
sera
supervision
ademais
mecan
afronta
facil
##rican
consumo
inspe
teori
tratam
rendi
cess
prazos
subsid
danos
empregados
las
antecip
judiciárias
independentemente
acordos
téc
salário
conheço
estabelecida
exa
##lagra
ess
representante
##agens
##gou
modelo
ilegalidade
##ridos
manej
num
investimentos
encer
##ivas
##anho
##tério
acolh
##endidos
6o
importante
afirma
processamento
come
satis
considerados
tu
realizado
za
meta
cola
pronun
tro
representa
hi
disponibil
autoriza
cria
lan
fundos
pretensão
experi
conflito
criação
verbe
escola
guar
dou
indenização
transferi
delito
##ulado
orden
##iza
prisional
estão
critério
monet
##tens
utilizados
##úde
mercadorias
##leo
prestar
marin
uni
saúde
maneira
ic
câmara
reforço
representação
meu
ambiental
patri
política
mera
##mou
formal
receitas
seis
assem
saber
omissão
obrigação
orientação
consta
et
lhes
apuração
aplicar
##atos
abrang
##uma
penais
varia
reajust
preench
##bele
##porte
contradit
mulheres
autor
maj
idade
apresentação
cha
##uns
reman
pressupostos
zavas
fática
profess
nota
legalidade
##ron
##endida
##ciar
fec
##cki
reno
##los
dano
negativa
500
##peração
##ciados
legislativo
##usão
zavascki
estim
ativa
edital
suprema
ambos
diferentes
associação
280
portu
decisão
temp
##vejo
policial
xi
porte
pontos
mobil
determinado
ilegal
mol
##lig
extinção
cuj
indústria
divis
observância
virtual
necessária
titulares
xxx
visto
##ficações
comb
instrução
dentre
abrir
extre
lugar
acess
avaliar
domici
boa
virtude
viabil
##ódia
jor
tratado
livre
reje
govern
figura
precedente
contratantes
##eu
mud
compromis
conferi
##ng
##liminar
inteiro
súmulas
parcialmente
##erem
contraditório
violência
##quo
atrav
movi
##cados
acre
obed
restaura
fab
flagra
gradu
##cumpri
prescrição
sí
utilizado
moder
hos
baixados
##mula
mensal
observa
preliminar
geográficas
##rança
santa
##aste
sumário
jos
compor
posto
enfr
referidas
vistas
aqueles
##itude
administrativos
anteced
adotar
quar
##gue
fundamental
polícia
dele
contratação
##rando
ministe
cf
rodo
cos
exter
disciplinar
posse
vencimentos
horas
popula
julgada
cóp
fi
custódia
melhor
audito
##esão
##judi
##enciamento
concreto
gabine
##ênt
infração
pla
debate
vencimento
possibil
##cidas
assinado
histo
fech
reitera
rever
trabalhadores
dif
efetiva
minha
alíquo
##onomia
motivo
observadas
banc
##rização
presentes
preten
consumidor
##édio
##cito
ps
##íveis
pers
estatuto
pág
deu
##logia
##itura
terceiros
##ácia
lav
incorpora
ação
regulament
papel
complex
pleno
verbete
public
extraordinária
possa
tramit
##emun
longo
bi
observados
possam
réu
##pet
ating
estabelecimentos
teria
negou
lat
sujeito
##áut
arbit
parce
industrial
rem
impetrante
##ísticas
1989
extensão
confi
possui
fiscaliz
gratu
##validados
dizer
##ua
##utela
##estre
flagrante
terão
situações
governa
decorrência
tributária
alg
##gada
complement
##ecimento
respectivamente
organizações
decidido
##arqu
##guai
sociedades
considerar
testemun
preço
líqu
##rais
barb
locais
dessas
separa
##erão
ocas
eminente
##onáut
alegada
ensej
radio
irre
sen
rest
edson
argumento
formas
comprovação
cobrança
##ust
xvi
##atórios
proveni
exced
requerente
bal
funcional
produtividade
havendo
grav
##tenção
terceiro
administrativas
colabora
lista
##aqu
inici
diplo
fixado
##ento
através
alguns
dado
programação
exploração
tão
##ude
##teriores
entende
fortal
quantita
vers
##eda
informação
investimento
##venção
comarca
##eição
cadastro
eletrô
tari
av
mantida
página
estri
##corrência
preços
implantação
aplicável
entrega
rs
agro
aeronáut
legisl
##quanto
##chin
reconhecida
##áticas
disposição
##gas
grave
determinação
perda
##ere
cres
##ato
112
último
invi
supervisionar
conven
vincula
instâncias
situação
##iras
##dad
##10
##astecimento
##atura
indicadores
gabinete
alex
judiciária
##ídu
lig
incluindo
executiva
emissão
fixada
proporcional
##comunicações
revela
##endas
portaria
exportação
##feito
lucro
dispens
â
ór
glo
sucess
condicion
##ítima
constitui
##icamente
iniciativa
barbosa
diário
autorizada
ilíci
privadas
principal
conversão
estudo
mandato
ago
los
descumpri
pros
##bre
requerimento
##ntese
obra
patrimon
emer
desemb
##ficul
##ím
##gãos
##ixo
referência
amea
contado
órgãos
contribuinte
vên
juízes
##íg
formaliz
transform
##gens
##cla
##ítulo
assessoramento
##ct
solução
adoção
competentes
anexos
admiss
fachin
eng
##nas
privado
justifica
litig
alcance
##ribilidade
##dif
vag
##utor
certo
indicados
firmado
reme
categoria
elaborar
socio
conflitos
operacional
jorn
exigência
fundação
##izadas
##onas
282
nd
poderia
situado
assembl
poten
irreg
previsão
##fera
dificul
7o
##tam
destinadas
343
efetivos
##ticamente
opin
equivalente
cru
improvido
fos
possível
dimin
secreta
autarqu
##radas
judiciária
##tel
sujeitos
estão
aproxim
##19
writ
ms
##ará
abastecimento
discrimin
joaqu
##fas
##ficácia
comput
##andre
pensão
joaquim
escl
técnicos
indicação
##ancel
repar
margem
##ndes
absolu
âmbito
proib
máqu
estratég
##érios
imediatamente
privada
##cante
##itais
##ônia
fg
acusado
aspectos
1973
elétrica
021
progress
0000
detal
alcanç
prepara
extrajudi
##ária
##ínio
##ít
##fei
adequada
##tória
passo
arrecadação
monitoramento
aprove
notificação
conhecer
##pi
##cando
recolhimento
arg
marinha
alexandre
far
cla
##anha
saldo
hosp
agora
##dicos
##xx
resci
##metro
desprovejo
diminu
justificadamente
##postas
elas
relativo
##cant
pretende
instalação
##adequ
recorribilidade
básico
##emos
##ono
aquele
infraestrutura
escrito
referente
expressa
defens
destinado
##30
segurança
igualmente
orientar
##itantes
suficiente
susci
imediata
discussão
##erá
desenvolver
ocupantes
liquidação
##feiço
##ati
gestor
sex
civis
classificação
acu
alun
insufici
##unção
inclusão
assum
isenção
enfrent
ocorrer
##ferências
150
motiv
impr
##ército
vari
mesmos
##cimentos
##raz
moral
vice
##oso
improced
monocrática
mg
devedor
correspondentes
cred
##́pios
abertura
pendentes
##idores
##esar
varas
1992
metodo
reuni
mic
combate
##iquem
##vados
políticas
trabalhos
##tice
##icou
seguir
participar
reserv
correção
importância
agência
forças
assentou
##vou
planejar
unidas
inovação
convalidados
aperfeiço
instalações
parcelas
consulta
técnicas
implica
executar
##ín
vér
eficácia
subje
acion
inscrição
auxílio
veículos
contudo
caracter
be
##hia
reta
##enciado
pret
folha
estabelece
exército
pi
atuação
víti
##tidas
mecanismos
eta
seguridade
sig
defenso
intermédio
##segu
fixados
diploma
julgados
vencido
contar
realizados
ó
imo
prat
rj
##itário
confront
conselhos
apelo
moraes
inscri
nenhuma
urg
apropri
##ân
competência
tutela
##iários
matérias
vértice
##ques
domicil
despor
garantias
tradi
compara
##propri
depósito
ativos
##plom
instaura
territo
óbice
cad
##ritto
empregado
falar
1a
##rismo
##́stica
1986
##metros
imun
inviabilidade
específico
taxas
##itadas
ul
síntese
compar
cham
##dig
criminais
recomenda
conservação
advogados
temas
##entos
##irmar
rumo
porquanto
##volução
adolescentes
deficiência
verdad
nós
prec
esfera
entrev
efetivamente
homolo
vagas
ôn
aduan
##wgr
atuar
vedada
##mbio
cam
comunidade
cópia
constrang
promul
##ologia
rendimentos
privativa
família
estejam
sessenta
cou
companhia
question
conceder
supressão
universidade
demandas
recomend
complementares
cancel
vem
diplom
logo
teve
inviável
dj
convênios
administração
nada
normativo
apresenta
recuperação
capítulo
validade
risc
##ste
turmas
descumprimento
##endidas
##cente
petição
inss
deduz
preso
transportes
surg
telecomunicações
##sta
incon
##damento
supervisão
##pas
constitucionalidade
fabri
ofere
resol
##arg
identificação
sala
intro
american
penas
##gedo
julgamentos
divergência
examin
nações
ativo
declaratórios
classifica
necessidades
determinada
can
sistemática
incorporação
##imp
##centes
concession
ministérios
básica
comprome
adotada
urban
##ices
compensação
governos
apresentou
definitiva
alternativas
potencial
riscos
acompanho
deri
apesar
relevante
seção
inadequ
##pens
última
pací
responsáveis
daquela
pis
examinar
ama
nenhum
responsabil
recebidos
apoiar
rodovi
3°
efetiv
bahia
auditoria
aére
baixa
esteja
complementação
principais
torna
verificar
##ob
três
8o
ingresso
junta
verifica
tip
##cí
caberá
aprovados
candid
naqu
incumb
carreiras
##ingu
levant
tornar
##ud
evitar
quin
consideradas
bru
suspens
##lia
dispor
permitir
provenientes
##́ticas
analisar
classific
##ring
agrária
veic
fran
contados
fontes
telef
entor
esfor
##tir
armas
cultural
##22
casu
vale
conteú
relativamente
##aran
disti
##enças
constrangimento
tjr
índice
municipais
nele
vantagens
vênia
##essa
modern
##cle
presença
cumprir
corregedo
segurado
modalidade
solicitação
indispon
submeter
alienação
consolid
reti
entanto
confiança
mal
##inho
eventuais
zona
provent
##anda
observar
isto
##aro
multi
deveria
##ística
##dura
certificado
post
diverso
tran
recorrida
conso
santo
##ond
corpo
definição
oriun
reclama
silva
advoca
britto
##ap
legislador
##itamento
alf
##neo
passam
níveis
congestionamento
mat
tributos
defensoria
##uras
##são
legitimidade
acab
posição
##rint
pedidos
##cionados
arma
definidos
ausente
ônus
pertinentes
observada
##éri
##dução
associa
##tador
habitantes
identidade
bio
comunicação
mim
prevenção
decidir
vinculante
##́di
impacto
##iada
habilitação
remo
##volvimento
##stra
356
pequeno
conferência
concent
ine
cata
reinci
alo
mista
beneficiário
comissão
havia
trabalhador
desapropri
##one
norm
edição
democra
cabimento
entender
realização
advocacia
maria
porto
120
##neas
ima
definir
pertinente
ced
aduz
estratég
legislativa
nav
fundamentada
códi
##dora
fez
simil
cart
##unciado
adicionais
flores
lab
conveni
##árias
cz
manifestação
arquiv
preceitos
##vios
adequado
opção
prescri
th
gravidade
eletrô
inviabil
##ício
##ntas
forn
verificação
entes
autent
argent
##fun
##tria
composição
##põe
preserv
oportunidade
previa
retor
##dir
vedado
##itando
equipe
licença
direto
indicar
armadas
fundamentais
eletrônico
imput
##enham
interessado
têm
##ique
detalh
front
regulamentação
algumas
##vocat
repro
aquela
penit
##namb
identificar
compon
trabalhista
verdade
jurídica
inadmissível
últi
aeronáutica
entorpec
comando
##emin
105
##cias
invest
expressão
intimação
relevantes
permite
específicas
admissibilidade
1987
algum
##necess
nomeação
restitu
presos
aba
pala
substitutivo
condenado
cruz
instituído
proventos
melhoria
constituição
ay
##́pio
##art
iner
ministério
##estões
dout
mesmas
indicado
problemas
nord
requisito
consoante
parece
josé
fornecimento
##ividade
consignadas
##íduos
##̃e
diversa
##endimentos
afastamento
naturais
futu
subordin
##ança
advocat
mesa
automa
quadros
conclus
signat
palav
estran
ferro
expressamente
assinatura
restabele
9o
ada
terra
desprovimento
hoje
governamentais
##nambuco
advocatícios
bil
180
certid
aconte
der
guarda
pagar
cumpre
103
jurídico
indica
indispens
##pol
inqu
110
circunstância
aspecto
monte
entretanto
ala
##dri
posit
investigação
##tuais
condenatória
catarina
argentina
conduz
intel
superint
descab
territórios
aplicáveis
requerida
verb
aerona
##ços
débitos
conteúdo
ç
impostos
isol
##iária
xiii
##dem
rg
fosse
igualdade
importa
pagos
apresentados
##dis
##ciada
setores
realidade
participação
licitação
##́l
vinculadas
##23
##tras
##ença
monetária
tecnológica
resposta
indevida
deixar
nordeste
proteg
protel
tocante
qui
estou
aferi
ayres
termin
193
patrimonial
confrontando
##utas
médico
imposição
concor
##endendo
individuais
det
orçamentos
trecho
balan
##24
brasileiros
pronunciamento
1964
convo
àqu
concedido
problema
estritamente
divid
envi
será
cláusula
cof
##poca
implementar
cober
alguma
reuniões
109
ultra
incomp
pernambuco
ocorreu
##mino
mencionados
00m
rou
##pj
1980
confirm
consegu
lavra
consideração
intermed
amos
hid
micro
##itária
comet
##ítulo
decorre
sedi
explora
corregedoria
esc
específicos
vál
##alidades
certa
##çam
impugnação
enquadramento
morte
##enciar
preval
eventos
intelig
fur
##cera
infirmar
erro
indíg
comercialização
motivos
órg
contem
##atórias
sanções
população
##́rica
##cie
integrado
oito
##ubl
constat
responsa
exercí
rurais
pac
corrig
##15
##iões
exigências
couber
escolha
armaz
órgão
candidatos
exteriores
aquelas
global
parâ
industri
soma
domínio
fiz
séri
##ps
concer
conceito
características
após
##ôm
gastos
inexist
ouvido
##sidade
previamente
seção
juí
comunicações
serviço
perm
superintend
causas
tudo
verba
contratual
##ania
pessoais
registros
sentenças
atenção
##ôsto
públicas
preceito
pacífica
avaliação
mú
##rést
##itou
desapropriação
fogo
aplicam
continuidade
tenho
esto
paradig
bor
aplicado
1ª
internos
adesão
formulação
merece
superveni
abaixo
abuso
##arre
person
##estra
mundo
capacitação
mencionado
digitalmente
compromisso
##inheiro
##nou
reconhecer
itens
##cionamento
sobera
única
##iário
adequação
reci
obter
ambas
esclare
adolescente
2a
âng
demonstração
debat
##ídos
##adoras
meramente
cumula
inapl
comission
usando
maran
##ww
notific
influ
indeferimento
fornecer
##edu
proferido
##cionar
##capa
afastar
apresentadas
espaço
autorizar
físicas
formul
cautelares
estip
desaf
##iados
fís
regulamentos
entrará
divulgação
691
reunião
seman
definido
classes
consid
tomada
código
idênt
consolidação
##dial
série
uru
emprést
nomin
incidente
gratuita
mem
parágrafos
sujeita
ig
propriet
moldura
##ularidade
institucionais
aplicação
qualificação
graduação
noti
alíquota
organismos
definidas
##oral
fechado
##mentada
pouco
país
população
idô
exige
convênio
líquido
contá
objetiv
diferença
##ariamente
residência
pecu
atua
princip
clara
tre−
maranh
prejud
inc
supl
ficar
##árqu
absol
ordenamento
deput
##cin
##inhas
solução
revogação
oferta
pago
depende
##cou
água
deline
acervo
candida
semestre
permanecer
autom
##cosul
##utores
ide
beneficiários
ângulo
duração
solicitar
##rícol
coletivo
##11
ocasião
##vem
destinada
##onância
subscri
prefer
##rum
envolvidos
suficientes
fu
tiv
compra
culturais
cláusulas
##iram
##grá
adquirido
cujos
nc
interc
reform
proceder
##ridas
300
##inde
então
sindica
atualização
comunidades
##ília
les
questão
original
##cê
esgo
hospital
prestado
veículo
reclam
suced
supera
##rimo
autonomia
interessados
diretores
redes
criação
fixar
cidadania
indisponível
peça
114
##ciamentos
mercosul
##̂nio
aponta
temporária
har
despac
extremo
disciplina
met
107
suposta
criminosa
perspec
audiência
perf
nºs
apresentado
##imetria
##guas
instituições
##difusão
privados
##egação
##gante
transpar
manifestar
fatores
caixa
##gação
lote
percentuais
consonância
culpa
aperfeiçoamento
tér
dome
vantagem
agrícol
apurado
carlos
mínima
prática
imunidade
restaurativa
extrajudicial
vai
inconform
categorias
rá
anualmente
prisão
##pecu
coleta
pagamentos
##missas
recons
cadastra
dotação
referem
##camento
comerciais
##emia
##vidéu
conciliação
##uri
média
##iente
maiores
inspeção
##éia
##ificação
médio
subsí
afirm
ré
paga
premissas
inadmissibilidade
reclusão
daquele
##stas
##goas
##2o
sc
##nego
tratando
perio
tera
anulação
ilu
##entais
ingress
prestadas
dilig
ampliação
principalmente
perceb
##pres
prévio
estati
passag
##inter
formação
amap
116
tecnologias
só
alta
professor
turismo
radiodifusão
inocorrência
imposta
pia
coisas
cumprido
dú
asse
magistra
son
tomar
alíneas
padrão
##mentação
amor
mó
##grama
apr
questões
expan
##adoria
filho
livro
##tn
acrescido
essencial
reajuste
expedição
volunt
cabendo
parceria
preo
grandes
subpro
organiza
práticas
transmissão
deles
106
ente
despacho
eletrônico
faculdade
quinze
##ático
concluir
adap
andamento
numa
incidentes
definida
integralmente
moeda
libera
corrente
aproveitamento
exercício
brasileiras
integ
##fin
ordinárias
##rup
hipo
covid
##compet
dr
criado
fomento
agropecu
preservação
quím
amazonas
montevidéu
paz
##ecução
insiste
denominação
2021
aprovada
108
normativos
suporte
impres
inse
asp
pleito
entendo
167
##constitucionais
candidato
##sória
##oraima
##gados
existente
contém
nossa
##bra
4°
fixa
cpp
criar
##vera
pont
designados
aguar
pará
crescimento
humana
insign
2ª
104
impetrado
contrária
denegada
pecuária
proviso
utilizar
mi
feitas
especí
exclusão
econôm
##ven
constituir
apresentada
aprimo
avan
força
##cionado
funcionários
pecul
##́n
estatais
sane
roraima
avi
posteriormente
##25
nucle
##idez
aero
oeste
obstante
log
contratuais
vinculada
212
exceção
ben
externa
##hões
infring
participantes
xiv
##ôno
126
interior
##ância
##bs
##âneo
tenta
estava
tjs
##mentado
uruguai
##dicas
custeio
parla
dosimetria
negó
têm
federação
fr
guer
##tório
##central
alunos
repara
policiais
tjm
crianças
modernização
vinculados
##14
##atível
práticas
ja
acarre
localizado
aparelh
##zar
criados
oliv
praticado
##gide
privil
sens
comanda
dinheiro
porém
desnecess
escolas
##ribuição
elaboração
índice
escritura
##zer
##13
circul
piau
procedente
configura
##cap
lv
##pot
estatal
125
mercadoria
volume
115
reconsidera
sô
adotado
científica
entorpecentes
doutrina
doze
sanção
teoria
máquinas
oliveira
sequ
##cê
previdenciário
revolvimento
votação
normativa
subseqü
contempl
acord
união
icms
espera
estuda
armazen
autoria
empregador
término
##̂nia
preservar
fará
amazônia
vul
##dência
etc
égide
descont
demonstrativo
##érito
prevê
muitas
destinação
gda
especificamente
##êr
impugnada
##ciona
implantação
##cem
tecnológico
todavia
embargante
débito
contida
##toriais
parana
época
qualific
urgência
coletiva
tipos
autarquias
organização
precisa
testemunhas
##stico
possuem
pou
jurídicos
razão
documentação
consig
agrav
quantitativo
modalidades
lastre
variáveis
externo
ultrap
ib
fôr
domiciliar
ressar
antecedentes
##inamento
preenchimento
denominado
doméstica
##çada
sustentável
objetiva
tjms
noventa
exigir
remessa
desfa
ocorrido
##tec
ão
diverg
##alizados
reiteração
tare
impõe
aprovar
hora
infrações
manejo
##net
negado
concedidos
cobertura
ara
audit
atualmente
função
ficando
##odos
existe
##rões
##fia
reaf
fazendo
condições
incluídos
adotadas
indicadas
##regação
textos
##df
executado
##óx
sete
##tudo
her
alto
ita
##dere
audiências
cessão
absoluta
jú
linhas
estre
obtenção
117
chega
prestados
sobretudo
capit
letra
configuração
compartil
##intes
medica
111
audiência
##fo
sor
metodologia
equipara
aplicadas
##jud
ratificação
cabível
400
##culosidade
##tadores
paradigma
extradição
disponibilidade
quase
repartição
##ificância
inquérito
pal
juízes
312
depre
213
instituída
##ivamente
mencionadas
gente
prestações
regência
##ológica
arr
contramin
indeniz
alegações
combin
113
jurisprud
imobil
##ético
##rés
autôno
capaz
##óri
integrante
definição
sucumb
publicidade
utilizada
vigil
##rará
sud
tributo
ilícito
vín
##ondo
parcelamento
passageiros
sur
publiquem
citado
exempl
preca
desembarg
operacionais
contraminuta
##lemento
portugu
##per
##fra
componentes
##ósitos
descrição
##ense
salários
remanej
magistratura
terr
objetivando
devolução
ferra
reais
povos
satisf
##́x
concreta
##résci
##erroga
leitura
originária
padrões
insignificância
iniciativas
parâmetros
qualificado
buscando
incentivo
##ciadas
indiv
junt
técnica
www
encontrar
distri
contribuir
dirigentes
hor
desco
consist
autores
tributação
saneamento
útil
##endem
diag
##enciada
atacado
fern
##ól
denegação
defensor
fortalecimento
sôbre
lt
demonstrar
ajustes
referência
##íb
consent
abstra
ensejando
indicador
##todos
##teis
estrangeiros
##guei
##é
públicos
passivo
explici
priorit
majora
prerroga
viabilidade
ficará
cofins
própria
rig
relatórios
##cantins
essenciais
##cursos
##18
##vir
##rupção
político
endere
institui
acolhimento
conex
##che
portos
##tificações
outorga
##ege
gratific
modificar
delitiva
você
tramitação
emerg
custas
estas
123
remunerada
mobiliários
morais
requerido
##âmbio
assesso
integram
##ecendo
procura
uf
##pé
declarar
amostra
atin
129
santos
manejado
intervenção
comunic
##elos
descentral
vigentes
limita
557
compartilh
pré
periculosidade
##ndices
vítima
incapa
reduzir
diminuição
nun
dependentes
internet
cancelamento
disciplin
##educa
##vação
##quente
desej
domin
labora
##logo
revogado
121
conjunta
##endário
petr
impede
assentar
lucros
##enos
estimular
##dição
##cha
##peito
maríti
ret
##cações
subsidiar
proteção
afasta
alagoas
543
sali
combust
##ecem
chaves
temos
inteligência
construção
cc
incentiv
preferência
abran
130
mínimos
##pla
pais
##óleo
compati
deliberação
##ministra
##16
##ane
intera
##como
submetido
bruta
certidão
inadequação
atualizado
bran
facilitar
dê
efica
resistência
##tórios
peço
assistência
senado
##17
justificar
informar
destes
1967
##elha
roubo
racional
orça
118
visa
passou
##ruturas
##pública
estima
esco
relevância
##ularidades
delitos
##gipe
infraconstitucionais
chegar
decor
imediato
imprensa
aeropor
tocantins
treinamento
fundamentado
opostos
fundações
comprovada
##reas
prestação
adoção
criança
super
composto
razoável
##itante
cen
intu
foro
complexidade
próprias
nesses
síti
xv
cível
efetuar
necessariamente
perspectiva
nar
regiões
determina
intercâmbio
insumos
vege
prejudicado
metro
acrésci
elemento
tan
seca
flux
fc
constar
oriundos
fru
vont
##irem
dn
##ult
ameaça
##ulares
177
aplicados
constituído
efetividade
calendário
tiverem
sug
##erar
saída
indicada
3a
600
inerentes
##andemia
assunto
regularização
retro
##enciários
petróleo
##eiramente
##administra
concorr
##torial
transferências
próprio
eficiência
##dire
serão
oit
##dados
sobres
antig
##tora
ideia
##integra
auxiliares
##fed
atenção
assegurado
extinta
cem
##ulada
designado
viabilizar
instância
##ícios
peças
##çamento
vou
autora
integrar
amparo
bon
autorizados
progressão
juvent
presum
percepção
exatamente
deferimento
metade
retra
140
170
juizado
ê
discus
decidiu
nosso
sta
penalidades
feitos
obtidos
auferi
cujas
convoc
alterar
orçament
##reira
aduaneiro
geração
admissão
##érica
multas
155
permanência
juventude
##õem
##iais
preocup
pagas
perceber
##len
##26
produção
mundial
claro
acidente
julgou
eficiência
delega
devol
166
##stica
comandante
sergipe
agências
dign
centrais
acrescent
direita
propósito
classificam
navegação
articular
requerer
servent
execuções
##entar
assembléia
responder
dela
454
majoração
publicada
som
sujeitas
vedação
cass
patro
##bidade
##́sticas
carteira
##gios
##tim
justa
ficou
dispensa
retorno
efetuada
socioeduca
introduz
redução
fabricação
instruções
constituem
faixa
controlar
médio
##ná
incab
formular
insurg
satisfa
enunciado
ajuste
inicialmente
automo
##°4
indícios
estrangeiro
ltda
gratificadas
##icídio
guerra
assessoria
previdenciária
##mens
alme
dívidas
aérea
cro
165
atores
parcerias
obrigatória
ordinária
financiamentos
semelh
ru
familiares
##eias
##põe
distribuição
##rição
menores
284
particulares
##ôrdo
##́gica
vontade
##itam
declarada
econômicos
espaço
competências
atuais
daqueles
##ncis
135
apreciar
deputados
períodos
##ces
127
arrenda
##çar
secretarias
idônea
improcedente
compromissos
designação
concluiu
devidos
162
voltadas
conhecimentos
##cordo
124
proporcionalidade
palavras
urbana
##creto
##issões
tempes
aprendi
tinha
julgador
bomb
tercei
substâncias
paraná
ing
sigilo
depender
aplicando
transformação
desfavor
vítima
incluir
livros
comuns
encerramento
sing
desas
lançamento
##cet
transforma
determinou
navio
modificação
##pr
##king
demora
recomendação
econom
eficiente
ultrapass
municípios
bom
consequência
conferida
setoriais
comportamento
pandemia
##igo
independente
extrema
sou
avalia
mantido
##uro
furto
##gues
plata
reconsideração
dere
##potenciários
##carga
pergu
pesca
implementação
5°
mín
1969
##ética
admitida
evidente
droga
##iro
##iana
anuais
efetuado
ocupação
tentativa
blo
##ie
cerca
gás
partici
recep
submetidos
##rás
empreendimentos
harmon
rádio
##cadas
comarcas
tradicionais
pedir
vuln
pase
águas
##veu
##bserv
vício
ambientais
paraná
169
ep
deferida
##enharia
expostas
enquadra
deslo
##estou
##imal
cidades
devidas
tomadas
entrevist
integridade
800
ded
impedir
pasep
aca
formulado
mudança
vínculo
##iás
alterado
remanesc
enfrentamento
eis
evento
faço
criada
fazem
capacitação
prorrogação
pje
paraguai
histórica
mede
incentivos
delineada
##tará
princípios
##empres
condicionada
reconhecido
frente
nove
procedência
capazes
jurisprudencial
algo
preciso
conselheiros
pleni
encontram
exercida
indiretamente
materi
##toriamente
##ânea
icp
##ncisco
igara
ganh
transferidos
sentença
##chos
rol
aptas
perfil
técn
engenharia
##él
##írito
observando
indispensável
contradição
acho
autorizadas
alimentação
distin
repass
verdadeira
contrariedade
122
##cupa
dea
365
ferrovi
produtores
regularmente
##ião
pertencentes
obede
##03
##ulação
valo
##estabele
mediação
decretos
matéria
levando
democrática
circulação
##12
escolh
resíduos
vias
rist
##ern
movimentação
##04
troca
obrigato
depoimento
laudo
celebrado
intuito
cezar
acumul
princípio
residente
pleite
composta
dignidade
##rizo
alíquotas
##tur
territorial
plenipotenciários
prejudic
636
mad
isonomia
encaminhamento
aviação
abor
correla
júri
contabilidade
168
restritiva
proprietário
falência
##iço
fixadas
##rão
tamp
delas
unidos
eleita
mantendo
encontro
189
1976
bastante
estrangeira
terceira
eventualmente
##econ
##ugu
ré
250
compreendido
levar
119
133
celebração
quarenta
milhões
incra
serve
reda
##inação
vítimas
dpj
credit
obedecer
cic
##°3
##ável
associados
ran
##ck
minuta
ellen
domé
mensais
déci
esquer
utilização
##posição
perímetro
utilidade
manifestou
##pes
fundi
desempenh
assevera
##cro
##°5
esporte
matrí
providos
conseqü
bancos
##contra
colaboração
mutu
comissões
educação
##velmente
instrumental
peluso
assegurada
urbano
delegação
adver
regulamenta
sindic
protelatórios
presidência
pecun
automaticamente
##́dia
inval
registrado
fator
aperfe
sítio
not
seguida
##ede
muitos
certificação
inativos
centros
concretos
missão
##timento
aperfeiço
sucedâneo
equipamento
##empre
fiscalizar
##har
138
econômicas
ressalvado
plant
##cind
máxima
constituída
manifestamente
gracie
inobserv
estamos
##vadas
francisco
derivados
posi
recebido
denun
existência
##íba
134
etapa
finalidades
antecipação
jornal
aprendiz
prima
##árquica
rigor
183
resultantes
compreensão
incumbe
137
cat
equivalentes
opinou
repe
##ouco
credor
femin
popular
hábil
regularidade
##tio
campos
homicídio
prossegu
##cumento
revo
relig
determinadas
hí
##grafia
incide
médica
espírito
consumidores
4a
dare
##º00
exon
escolar
##lha
embarcações
equil
long
128
presunção
178
aparelhos
correta
var
estiverem
depósitos
correg
131
flu
##edores
desl
necessário
revista
semia
distinta
ipi
descabe
##rol
medicamentos
##tações
conter
##enciados
ressarcimento
superintendência
##of
segregação
tabelas
172
plena
desenvolvidas
##visão
conhecida
##02
refle
igarapé
definitivo
admitir
tributa
calculada
possuir
159
##rique
##erão
admite
neguei
##iii
modelos
monetário
penitencia
postos
determinados
cabíveis
restou
283
tampouco
##tificado
extinto
variação
##resso
##ídas
##su
666
eram
envolvendo
nela
relações
buscar
157
filhos
classificados
agravado
ceará
áreas
atende
gratificações
##05
permiss
##ído
##eja
investiga
científico
nível
174
emendas
ef
##use
prêm
descon
manual
elim
calculado
pata
incre
seguros
xxxvi
ga
início
recorrer
mt
146
crianças
braz
gl
tst
inver
navios
bre
magistério
mencionada
usuários
repet
##ulados
negócios
motivação
realmente
compul
fgts
negocia
##ell
invent
submetida
peculia
##ôs
alimentos
##pou
letras
restituição
aduaneira
patamar
band
##tt
presidida
##gna
##áticos
1985
##́tico
##ícia
179
153
ristf
contendo
impedimento
improbidade
professores
org
costa
de19
movimento
aberta
custódia
144
diplomática
lesão
deb
doença
firmou
145
permitida
##ibir
acon
bolsa
deliberativo
mútu
estruturas
responsável
maranhão
##ile
bases
demonstrado
renovação
vigilância
##cionadas
partido
deixou
##considera
##29
milh
amplo
mudan
autarquia
semiaberto
benefícios
pensões
levantamento
nest
embal
185
expansão
186
firmada
embargado
registrados
##tern
incabível
homem
aprovou
formalizado
188
renego
mante
destaque
##eres
injust
tratados
vide
disse
produzir
inteiramente
objetos
memo
abus
##ésimo
caracteri
aeronaves
destaca
seleção
voltada
férias
rcl
187
##vez
nominal
##icabilidade
171
demandaria
venha
##arti
##nia
##imes
defende
175
prioridade
demonstrada
consignando
fomentar
rendimento
##çado
alcanç
##brás
##tições
impôsto
##tariamente
contribuintes
polícia
132
regiões
padron
tradicional
viabiliza
aéreo
crono
##iárias
sequer
##blio
apreensão
informática
consultas
acôrdo
##ída
##ví
providência
consci
suscitada
preferencial
integrada
##icardocumento
seriam
autenticardocumento
paral
##rizados
funções
operador
exercícios
xxxv
certificados
dificuldades
##27
##erção
quantia
pressupõe
restrições
cidadão
dependente
contrar
##elec
pension
##dicamente
condutas
quotas
##ógica
espécies
emergência
ibge
esquerda
celeridade
##razões
reservas
##ficou
##ológico
gerenciamento
contagem
limitação
estreita
massa
ampliar
prover
estabilidade
mercados
dirigir
dúvida
##estado
173
estando
subprocu
##competência
mc
obrigado
oitenta
cura
exceder
##alei
uniform
amapá
mero
##iria
idos
1966
industriais
general
##espe
jurisdição
ausentes
empregos
culp
plenária
tarifas
passagem
concern
deslinde
##alização
incluídas
subseqüente
136
##namente
contratado
goiás
lar
semelhantes
rej
alinh
##poder
lingu
dob
##itivos
orçamento
representar
##ema
família
personalidade
biblio
balanço
detri
brazil
pond
rib
##cção
primário
oferecer
importância
##iam
suplentes
arbitra
##pc
petro
conselheiro
máquina
part
##var
176
orçamentários
diferente
criança
##izando
animal
limitada
inobservância
##cionada
158
confun
pan
razoabilidade
convocação
terato
humano
##ônju
##atário
##01
##íss
sé
importantes
##lexão
governador
##ior
##ondônia
distribuídos
têr
viv
proferidas
lastrearam
contrarrazões
ram
dec
disponíveis
encarreg
ã
republ
intelec
156
destru
emitir
acautel
##ian
piauí
rn
##riado
subposição
temporário
jornada
##doras
##́dio
1983
outorgada
positis
##vin
infância
indíg
inconformismo
reconheceu
##eições
destacar
compreender
excepcionais
divisão
ncz
vinculado
mostram
verificada
carcera
declarado
orienta
contidas
nomeados
desesta
corregedor
egress
##alizado
assistir
estará
obser
acerto
escala
ofens
especialistas
pib
probatória
##º3
147
importações
resultante
frequ
##crever
forte
alud
##rização
latitude
entendeu
##º4
eman
crist
##ubst
escopo
edi
divisa
rodoviário
##organ
##una
estação
entrar
rondônia
##º5
##icina
184
##gadas
saldos
firme
euro
firmados
sequência
##idar
fid
comunicar
oriental
adquiridos
corrigido
##tários
consiste
deflexão
primeiros
psic
cônju
etapas
verbas
ranking
positivo
##térios
deveres
totalidade
impostas
assessorar
longitude
ec
contín
coletivas
estratégicos
idio
pluri
obscu
encaminhar
##itor
viagem
futuro
optar
monitorar
obrigatoriedade
utilizadas
políticos
simult
##́stico
gestores
finais
##dando
determinando
##ardo
paraíba
permitido
ajuda
om
##itários
adju
penalidade
educacional
##iano
320
##beis
substan
repor
##erial
##́tes
abrange
notada
transmit
domic
séri
aprimoramento
critérios
sedimentada
reestrutura
doação
administradores
alegado
demar
agravos
especializada
eleitorais
temporal
assembleia
##qüenta
arquivamento
contato
nessas
estrangeiras
citação
##quir
partidos
permanentes
anu
compreende
jurídicas
rua
hig
oral
rescisória
pontu
detrimento
restrição
##dricos
repasse
319
colig
pauta
decad
aplicações
antecipada
190
aceitação
alcançar
obrigatoriamente
504
responsabilidades
signatários
estabelecerá
admitido
soberanamente
hipótes
404
cooperativas
##crático
5a
##equ
1962
título
pereira
##osas
estaria
##000
bordo
expediente
##́cia
imprescind
##ore
##cep
inaplicabilidade
denegar
fernando
propa
##tadora
substituto
industrializados
##gráfica
destina
subjetivo
efetuadas
agravantes
acad
perió
almeida
ati
júri
terem
invoc
141
salva
acusação
154
coordenadoria
forneced
regimes
multipl
##órico
##cetível
##stru
##stin
lucra
estrada
##ízos
mês
##ílias
142
estoque
graus
expresso
tjsp
transit
convid
extens
processar
comite
quarto
participou
mit
have
1970
idêntica
concedidas
indígenas
139
latino
##ânime
mp
it
##28
exigidos
zero
##alo
prejudi
americana
índices
fronteira
atle
permissão
celebrados
arrendamento
##imais
##inisterial
decretação
##órcio
modifica
elaborado
sofr
providências
semana
atent
##alizada
situações
indeferiu
##ndole
ilust
nuclear
##tização
##missa
veto
disponível
indígena
venham
congên
materialidade
improcedência
eleição
##grafo
317
famílias
dificuldade
trabalhistas
física
presta
marca
habita
produtor
##irma
##quência
##teza
intern
instituição
aprovadas
atingir
resultar
insuficientes
esforços
regulação
cinqüenta
amortização
mormente
tramitação
##lumb
ia
internas
161
ferreira
homens
prola
administrador
149
similares
indicando
210
destino
cooperação
modificações
163
graves
apresentação
probatórios
##ubstan
##sem
procedendo
transitada
conteú
domicílio
intens
acompanhando
infringentes
pd
associações
souza
delim
designada
143
inclui
##nio
litigância
conveniência
existem
roman
comprovar
##ixas
prejuízos
simplesmente
animais
subvenção
afirmar
##ises
##iadas
unânime
requisitados
desres
segmentos
suspender
##̂nicos
distint
##ganda
##tizar
exportações
contábil
cd
reincidência
rh
protocolada
irregularidades
##cool
##turas
160
vagos
corresponder
##mentas
talvez
matrícula
reemb
sobrev
revisão
peculiaridades
concorrência
excess
terreno
##artigo
reverter
plurian
habitação
fáticos
comissionadas
prol
agrícola
contor
192
gên
explorar
apto
nascimento
recebida
opina
##ndi
empréstimos
capítulo
credores
vín
##́rum
##gate
ciclo
bndes
dimens
instauração
cm
din
##impl
torno
544
interministerial
consubstan
subsídio
índole
##agra
inferi
exigida
joão
##ly
pb
##ind
mantidos
estratégia
atendidas
anist
interpõe
horizo
digitais
exigido
naquele
cotas
##ila
##federal
coordenador
resulta
coletivos
182
funcionário
folhas
absor
fluxo
##decreto
autu
vislumb
produzidos
revoga
rodri
##dagem
empr
proporção
##ístico
superveniente
consentimento
aperfeiçoamento
organizar
adequadas
evolu
151
salv
##pm
combat
##erados
ane
mantidas
demonstram
redist
favoráveis
legitim
próx
aver
datas
aprofun
desporto
desafios
dupla
desestatização
notadamente
descrito
mecanismo
aproximadas
promoções
tarifa
avis
desigu
relacionada
sanitária
juntamente
perigos
honorária
##ônica
##estral
##erou
##ificar
bandeira
pn
apurados
subscrita
tja
revelada
##adi
corresponde
##ton
fórum
condicional
resoluções
aumentar
experiência
resguar
hídricos
##vit
##imas
adquir
estratégico
##auto
##íp
##pção
##itará
intelectual
##cto
embarcação
##ity
peritos
##fes
inadmit
aproximadamente
proteger
##elar
##tória
consultivo
##xo
##rita
propaganda
##atíveis
##prev
extrajudiciais
cargas
eleições
liberação
assistente
acaba
diversidade
pronúncia
empréstimo
##íbrio
dando
mercant
registrar
troux
corré
envolvidas
móveis
##°00
propositura
consignou
adotados
obtido
225
ressaltar
único
passando
justificativa
legalmente
renúncia
passado
##grá
goi
argumenta
edif
cumprindo
conceitos
utilizando
darepública
visual
pôr
veio
povo
impress
autárquica
atenda
literal
úteis
cerce
##sticos
ocupa
consideram
declarações
obscuridade
inscritos
acionistas
sobrecarga
desconto
corpora
televisão
fls
arquivo
gre
mist
##ientes
núc
instituir
sócios
detent
cronograma
reunir
intemp
##ción
148
##inariamente
recomendações
organizacional
resgate
infrator
jurídicos
estranhos
teratologia
normal
##user
documental
havido
profun
punibilidade
homologação
##tência
##ges
gov
sinalização
consultoria
aposent
lanc
xvii
cedidos
jurisprudência
##fique
separação
mão
procedida
costu
gênero
mensalmente
##item
reconhecendo
implic
portal
psico
coer
##inistério
##ícito
metodolo
##osos
considerações
acresce
##vens
efetuados
peso
perigo
licenciamento
indiví
negociação
penitenci
sucumbência
##cn
interp
indivídu
mercê
ressalta
haverá
educacionais
rejeição
setorial
interv
afins
guia
##vão
sep
energ
##itivas
##tista
cartório
inova
contemp
desconstitu
##icul
##cretaria
compatível
nomeado
cará
obrigatório
experiência
discriminação
rond
##icável
funcionais
formalização
existir
sec
249
irres
consequente
xviii
by
##riou
##posições
##ônicos
gene
profissão
matri
assessor
precon
segmento
pede
sócio
decorrerão
pacientes
praticar
resumo
##ateral
democracia
estudantes
fór
apresentam
legislação
caráter
fas
distintos
pedro
intermediário
##éis
conting
português
nomes
porta
1979
confirmação
##tá
estágio
intempes
estagia
envolve
insuficiência
paí
adotou
proibição
lemb
rr
##ear
vinculação
completa
irregularidade
##tres
##olis
manob
apurar
subsequente
países
##out
decla
recebidas
equipes
provo
leil
insus
##trou
configurada
acrescida
precis
qualita
métodos
expedido
vei
tarif
##tativa
incentivar
##06
criadas
152
##ração
##itação
##ator
##ensão
aí
supra
empresarial
extintos
##fego
1984
cidadãos
desembargador
diagno
alv
jovens
religios
ques
##paro
identificação
##uladas
publicação
##igna
privileg
##ural
##issão
700
##endos
incluído
aluno
ampara
restos
perícia
ressalva
##ham
reintegra
exclusivo
reclamado
medicina
lucrativos
arte
tarefas
##class
fatura
possibilidades
município
ajuiz
josé
sorte
prerrogativa
001
tutel
teto
correntes
governamental
parlamentar
vulnera
##35
dolo
##ráveis
regulamentar
ressalvada
quota
rot
##mite
incompetência
interpostos
iguais
federação
pensionistas
foco
cog
bolsas
pob
313
sindicato
desfe
apenso
##ás
goz
##taram
ciências
dêste
pós
rp
##́d
procra
estrito
contrapar
disporá
linguagem
jud
incid
deverá
aplicabilidade
gerador
farma
cun
law
soluções
sexo
espor
últimos
êste
181
estavam
excetu
procuradores
acredit
vários
##ao
prete
1965
alimentar
similar
##elab
auditor
contam
pactu
propon
importados
acréscimo
sis
merecimento
empreendimento
indivíduos
preferencialmente
locomo
cumulativamente
##tórias
contratados
vaga
espí
eletrônicos
sum
reto
afastada
permissivo
juízo
diligências
glossa
gên
1981
marítimo
164
agropecuária
expec
##tizado
revogados
##ativa
revogadas
cometidas
eg
zonas
sel
respostas
características
##ógico
atraso
evidencia
decidida
publicar
enseja
6°
invo
societ
wh
facultado
salarial
desigual
trim
##viii
médicos
submetidas
ál
impactos
esferas
suge
leva
magna
incidi
resolver
substituir
fundacional
reembol
exposição
celebrar
estratégias
remoção
perdas
##sl
##itores
##ande
traduz
transa
##diver
dispõe
pertence
série
##sões
##tizo
solida
organizações
distrital
avaliações
oportunidades
tempora
nunca
comprovado
ganhos
##itárias
##quia
prioridades
##onia
##feita
##ificada
gerar
##rimentos
##icer
##ficação
##cípro
terceirizados
fór
poderá
porém
expedir
inadimpl
glossário
habitu
chile
refin
substância
movimentação
irrele
dito
ost
vendas
estranho
##cal
penho
that
procrastin
extravas
depositário
regulamentares
culpabilidade
##45
##onio
##dias
microempres
##anciamento
destas
execuções
alegre
conciliação
##ênio
##idado
chama
tiveram
rhc
##ph
##dom
justamente
transparência
##bras
exercido
230
suspensivo
agrícolas
camb
apontado
inviabiliza
negociações
207
##creve
diferenças
dra
ausência
452
designar
excepcionalmente
tange
atip
intimada
impon
promoção
salvaguar
espírito
intenção
presença
restring
importador
fro
cometido
mí
##gramas
chegou
continuada
recípro
positiva
240
cabo
histórico
aneel
registrada
assumir
reparação
desenvolvidos
inexiste
impedimentos
pud
287
atacada
sindical
assenta
circuns
quantitativos
verdadeiro
nú
exib
locação
digit
último
combinado
setenta
sudene
nut
têrmos
tende
atento
terres
contratadas
##endedor
arquivos
##arte
viola
ocupando
testemunha
averb
##au
alicer
##domin
reduzida
##tizou
atipicidade
##ers
cade
crí
pet
line
xix
prever
crise
manutenção
substancial
confer
ocorrerá
colon
residentes
sustentação
alternativa
##lat
organizado
preclusão
compare
agenda
firmar
concessões
sexual
subsídios
##apl
discutir
moradia
mitig
agir
poderiam
aduaneiras
verbis
goiás
##idad
escrita
acolher
assentado
aband
certame
tornando
renegociação
cônjuge
partem
##tibilidade
##vii
presidentes
registradas
fortalecer
alfim
imprescindível
pequenas
desfecho
##33
cef
rito
depro
atribuída
permitam
lima
foto
adequados
202
limitado
##baix
posteriores
assinal
vit
216
novamente
##órum
##ristas
esclar
##op
estarão
paul
técnico
reclamante
responsáveis
localização
##essem
##crim
fundiária
câmbio
punitiva
convenções
naquela
comitê
pericial
voltados
sabe
especificados
inferiores
próx
##qual
288
chefia
ouvidoria
orçamentária
##ecido
dá
##enças
##damente
228
soltura
acauteladora
trouxe
##icultura
veí
premissa
servir
superveniência
bra
htt
##ervi
##mentes
##ática
retribuição
inaplicável
enun
clt
melhores
discussão
tribuna
desacordo
recupera
aeronave
hen
1971
nestes
##ânica
enfer
agrário
tráfego
redis
contratada
retirada
permanece
327
divulgar
técnicas
cra
##iadores
consecu
especializados
outrora
ceará
emitidos
##ír
institutos
exames
ramo
entrou
produtivo
agress
comporta
##ímp
postal
consignado
##́sticos
canais
206
decretada
acór
##rela
pendente
##ricana
derro
flex
he
adquirir
extravasamento
##tividades
magn
prevalecer
cerceamento
tar
##07
##queira
solid
estatut
##08
##anos
bruto
restabelecendo
cour
conteúdo
elevado
possibilitar
ferramentas
oportuno
insuscetível
transcri
representam
concessionária
##ães
dimen
esqu
reprim
##ction
consagra
##essões
responde
turí
##venções
estagiários
xl
degra
prefe
acidentes
beb
lotação
lava
##aus
agreg
tend
trâ
quinta
reclamada
evolução
##09
##emato
indeferido
litigios
pai
##rizar
##ológicos
trip
apropriado
incapacidade
usuários
iba
preven
235
##aneamente
barra
mach
##elaboração
localidade
dissemin
manobras
obl
condenados
décimo
denominada
acontecendo
ficarão
inibir
##prezo
edição
##idente
##tins
##econôm
##mer
consecução
rescisão
sonora
cível
##ciou
acusados
##jos
descrição
prioritária
##administração
##isso
aprova
favorável
##ítimas
palavra
ri
##fisc
américa
##util
liminarmente
784
1977
estrita
##ical
observará
jogo
##ional
fraude
complexo
detalhamento
originais
efetivação
mental
associado
contábeis
##resente
ana
aéreas
aprendizagem
reestruturação
benfeito
##curs
##̂mica
propici
especificadas
wit
##cao
233
concedente
##bar
caracterização
##ork
caracteriza
dupl
congêneres
físico
826
posições
companhias
eletrônica
cg
##tórias
quitação
##ang
1974
distintas
gos
especializadas
distinção
dede
fala
deliberações
##ai
##mentares
preparo
##rad
repu
primas
nacionalidade
impetrantes
ramos
##locu
auxí
colegiada
plurianual
adquirente
atuam
inatividade
vínculo
##dada
##́rico
doações
contratar
dará
relacionamento
recusa
##dou
audio
enfa
estruturação
retenção
##institu
ressalvadas
aç
supor
248
##cend
dedução
corrupção
operadores
eficaz
locomoção
vícios
##gover
##eta
renov
##íduo
coordenação
ouro
urbanos
migra
indígenas
integração
completo
##th
##tente
##ficação
credenciamento
consolidada
conserv
sr
parque
campanha
##pida
recip
automática
##razo
eros
##rá
dirim
##trans
deliberar
doenças
239
antonio
rodovia
fnde
cogn
371
sé
##nicamente
haveria
henrique
fel
obtida
penso
delegada
##tw
gomes
titularidade
patrimoniais
criou
totalmente
882
originário
exe
praças
infant
229
dispuser
##ure
governança
industrialização
operar
publicados
##med
##ard
concorre
macro
seguindo
##cínio
concede
imputação
plataforma
prosseguimento
secun
##duções
gravos
verifico
percebe
empenho
##ificados
##polit
arbitragem
benfeitorias
##meno
finanças
irregular
contornos
ibama
535
ementado
##anhol
auxil
usuário
glob
entregue
281
melhorar
moldes
tbaix
marques
submeto
universidades
inequ
liberando
##êndios
sustentabilidade
##́lio
depositados
debates
##ulando
227
292
##0m
beneficiária
cumprida
equilíbrio
##́gico
precatório
idiomas
audiovis
analisados
enquadráveis
lín
capitais
##mbro
alfande
interlocu
tipi
sobrestamento
##̃em
pade
sei
estím
unicamente
##neos
355
denunciado
##enciadas
consequências
prêmio
incompatível
indevido
##pendência
prévios
dependência
fundada
xxi
mudança
citada
mari
ingl
milhões
nós
deixa
preparação
citados
##eras
##vição
informática
contrapartida
acel
satisfação
##trabal
constituídos
##nacional
espanhol
absolutamente
armazenamento
##dft
fases
##bol
##éticos
acessórios
disciplinares
óp
##tei
conterá
##veri
única
imagem
##tive
##istema
lá
191
program
395
honra
florestal
##cara
incorre
valoração
verificado
computadores
ajuizamento
deslocamento
partindo
solo
##único
215
trancamento
presumido
bel
perito
elen
reapre
representativas
investigações
ín
prisionais
envolvam
àquele
##pelo
plenário
ensejar
conheceu
##tional
herd
bás
tão
##sante
absolvição
branco
##elhante
básicos
concessionárias
quinto
recus
toga
menosprezo
federativos
auxílio
interro
valho
conferir
##tila
indetermin
acompanhada
correrão
metropolit
##issões
informado
continuar
desvio
alugu
versa
##enu
##cora
empenh
trabalhar
205
desconsidera
silv
emergencial
lancei
prevenir
sí
##uci
##çados
designa
veja
visita
conflu
presencial
normalmente
aviso
203
descar
estratégia
##dc
##tis
majo
357
430
juntada
rondônia
álcool
inexistente
privilé
quebra
cinemato
cortes
brasília
##ciplinar
abstrato
##uo
sufo
eleitos
permitindo
calculados
faça
semelhante
manifesto
curador
lide
##tendo
artes
modulação
significativa
fiscalização
estratégica
##íba
prorrogado
hierar
cabeça
encerrada
desasso
##mm
autorizações
##les
##mulação
tributários
distribuídos
amig
particularmente
onda
externos
núcleo
pequena
descritos
pretendida
prescricional
logística
fração
eleg
examinado
prefeito
envio
277
idem
analisada
engenh
##inhos
envolvimento
atentem
##cs
231
406
tjrj
concerne
divergir
tel
zelar
##públ
##icações
394
880
##ites
inclusão
acompanhado
reduzido
consignada
cv
##orama
casas
##crimin
patente
dein
março
tjdft
350
sudeste
##urocra
predomin
desassombro
advent
minerais
restrin
litis
auditorias
matriz
##sias
alterada
interessadas
difusão
normatizou
1968
manteve
declarou
deso
senhores
236
trazer
consequentemente
##sim
223
apreciada
1963
usur
alcança
puder
interame
subprocurador
baga
pareceres
cópias
derrocada
bu
codi
atendidos
elevada
ocupante
caracterizada
##gamento
perpe
manaus
diagnóstico
procrastinatórias
abord
farão
controladas
autênt
suplente
americano
##44
retificado
##eix
reprov
honrará
sufocado
reca
retificação
alem
339
podemos
hier
conduzir
##rel
estiv
gasto
##atu
##estad
localidades
tarefa
rub
tant
##utica
respond
populações
desportiva
esclarecimentos
with
##ativas
designadas
justificada
mineral
598
monocra
antecedência
estimativa
omiss
atrai
localizados
formalizada
900
coinci
alus
condenatório
##tions
chamada
multilat
escrituração
bombeiros
##zu
intercep
assinaram
maranhão
decreta
##centos
036
##zas
##órg
indep
controles
##peza
alves
apreendida
fórmula
208
réus
##ume
confed
214
boas
aferir
222
347
indevidamente
##ativo
irrig
analista
aná
interrupção
artif
competit
vê
204
especializado
015
conclusões
tempestivamente
aposentados
semin
interessada
limitando
reparo
carência
aferição
##gal
##pont
funcionar
rejeitados
dividendos
mídia
256
##iguidade
identificados
##eza
##36
decide
decadência
prejudicial
3ª
econômica
226
##present
##dação
##cência
baixo
protelatório
pondera
juntas
compõem
recebeu
recente
prospera
invalidez
209
advento
deva
mudanças
acadêm
típ
necessárias
requisição
posicionamento
km
vene
##dep
exerce
estratégico
endereço
dista
cál
terro
viação
##compos
dispensada
decorrido
câm
##esp
gon
ans
##rizada
conhecidos
teriam
sancion
volta
configurado
254
##redo
teses
prem
219
217
adoto
visão
1956
obedecidos
##tm
tot
ten
contratações
desrespeito
moto
exaust
concursos
subl
resum
244
diferença
empregadores
afirmou
detec
certeza
inadimp
##âm
estratégias
diá
discorre
reconhece
pressuposto
imponho
superação
descontos
##dicidade
##ítulos
remanescente
reelaboração
protes
legítima
martins
especifici
sól
gd
extraordinários
biênio
esclarecer
contest
quilo
apta
099
246
despropor
mercantil
##ich
grá
340
trf1
vencidos
iniciar
dan
mérito
penhora
##icada
inj
desnecessidade
reafirm
máx
##ficio
consolidado
incompati
##tus
solicitado
decorrer
impugna
licenças
indivíduo
litigiosidade
restritivas
franc
farmacê
belo
##vil
desdo
cuidados
##ferência
polu
sucessivamente
##idação
cartas
##ambi
convencimento
afirmando
##írus
645
##conselho
remanejamento
estímulo
pesquisadores
consórcio
pertinência
história
cadeia
surge
narra
prejudicada
plural
exercidas
recorrentes
##fru
coro
interrog
sinte
748
imagens
mínimo
dobro
provejo
estabeleceu
apontada
ipc
##tável
232
reconhecidos
346
colh
repartições
definitivamente
##disposto
##çar
segurados
códigos
exclusividade
bibliote
gal
211
257
várias
terços
subtra
##exer
##ubs
proposição
##abilitação
obedecerá
ns
##trib
jusante
suspensa
adiant
estatutos
democrático
padrão
pobreza
suficientemente
tjrs
sofrer
odo
##icção
480
válidos
##bio
##ence
fazê
478
antônio
cometimento
embas
270
rotin
menciona
prorrogada
ilustre
horizonte
alh
passiva
##tidão
ajuizada
específica
decurso
douto
##itimidade
iniciais
combustíveis
executados
relacionado
compatíveis
executivos
494
visitas
revelar
controladoria
entrevistas
tcu
emolu
federativo
oblíqu
326
deferir
autônomo
calam
encargo
produzida
panorama
218
328
lx
desm
##cação
alguém
anular
administrações
eletri
encarcera
vítimas
preferências
continua
importâncias
faculta
naval
amapá
alicerçada
vent
mino
mantenho
compatibilidade
##vés
abono
recepção
##provis
político
proposto
apare
220
incluída
tomando
conclusão
aula
gesto
reprodu
breve
lavagem
ganha
ofici
conseguinte
dependerá
debatida
prerrogativas
constituídas
passíveis
1975
constitucionalmente
violados
##onacional
incorporados
óptica
sia
##contro
cô
constituinte
neto
696
de199
crite
541
ministerial
##ícita
oblíqua
lxx
tela
obrigados
transferir
últimos
bons
réu
reapreciação
4ª
##ures
rein
emitido
penha
mape
compatibil
ratific
aceitar
ultrapassar
analisadas
governança
transparência
ganho
prob
038
ilegitimidade
espaços
conexão
redator
compreendidos
basta
geradores
softw
cote
##logos
secretários
conceitu
serventias
singular
oitiva
259
069
apontados
##dutibilidade
dirigida
restrito
associação
dor
perder
637
##rões
natal
alvará
##55
posição
##alizar
especialização
superá
1972
745
arquite
1941
venezu
je
##mf
360
enfo
formalidades
constatada
vários
poup
irresign
repúbl
##entas
daquelas
emitida
##cionário
baseada
apontando
permita
pontuação
implemento
perfeita
vegetal
adct
cuida
disponíveis
pensamento
##loso
promulga
##çadas
portador
tempos
distâncias
plenamente
assegurados
554
admitidos
edifício
assunção
estimado
produtiva
ressalvados
contrari
isentos
certamente
563
instâncias
licitações
aguardar
020
##ds
regimentais
situados
orçamentário
##́rcio
confluência
respeitado
##zentos
incidir
respeitadas
260
comitês
hipótese
casamento
editar
passar
retorn
provisória
##iando
possíveis
assentada
hidro
anuência
inovações
superávit
##dutos
tortura
apurada
evidentemente
dina
##formas
aliment
estradas
revogada
extremamente
valorização
dop
visem
evidenciado
insuficiente
egressas
##48
522
horário
emolumentos
##envolvimento
##tiza
justice
sessões
converter
ferramenta
usurp
ideias
remuneratória
colocação
acolhidos
arbitral
transitórias
república
tam
desenvolvido
491
cump
##ítulos
condição
discute
fen
serra
ach
químicas
proporcionar
inadimplemento
##mada
administrados
atribuir
requereu
procla
##ísticos
833
encaminhados
excepcionalidade
precatórios
nucleares
agu
arran
intima
##ópolis
instrução
remanescentes
conseqüência
teste
##pb
escritório
colocar
localizada
especificado
cenário
higi
gênero
##avi
##xico
garantido
próprios
hospitalar
auferidos
ign
arra
imag
futuros
simultaneamente
oposição
inviabilizar
anistia
##mpa
pain
316
sinais
extingu
embalagem
otim
##enal
encom
##rizado
recebe
intimado
odont
sy
restrita
abordagem
nomen
embargada
atribuídas
incluem
ocorrendo
eletrônicos
reprimenda
7°
define
protocolos
acessibilidade
alocação
concernentes
rodrigues
##diversidade
##pf
cota
224
quadra
suspe
848
esgotamento
terço
parágrafoúnico
limitar
indeferir
rejeitar
periodicamente
destruição
barre
596
recolher
proveniente
mútuo
disponível
evidenciada
subsidia
elimin
atleta
apor
atribuições
##inham
apreciado
implicar
recolhido
sigil
válida
compulsória
##ternidade
##pea
exclui
diálogo
promovida
029
reproduz
desempre
submissão
estabelecendo
antigo
bis
##37
sementes
264
460
genético
fui
preocupação
##200
condução
vier
dirigente
sofre
tjmg
pecuniária
cé
271
formula
aquilo
homo
externas
implicará
##quem
instituídas
lazer
conviv
##ônicas
dissent
insurge
iss
deverão
previdenciários
acolhida
ufir
ext
exportador
experiências
##ídio
##ese
##tum
declaração
##ntamente
universo
demarcação
venezuela
cidadão
estatística
##ívo
dej
adota
causar
método
chamado
matricul
praticamente
fixo
437
encaminhará
credenciado
desconstituir
machado
##trado
comprador
atribuído
causados
718
memória
muse
respal
dúvidas
rediscussão
parâ
##ribuições
429
versada
clima
278
072
discriciona
infantil
##vora
##feitos
683
remuneração
prorroga
sexta
patrocin
interpôs
peru
negativo
correspondência
##ltipl
assentamentos
gv
tse
prevenção
marcos
334
revogam
trf4
##atividade
despeito
##jeto
julgo
interpretação
produzido
executadas
originariamente
última
câmara
ordens
gozo
trechos
aliás
##arão
tjba
jurisdicionados
433
715
detenção
##vers
racial
fossem
cálculo
##rop
acade
266
reexam
portuguesa
##fec
##correr
especialista
determinará
excluídos
propo
##teu
repercus
desmemb
diárias
entregues
destacou
exoneração
nomencla
ecol
list
##ys
suposto
limpeza
##isa
##dições
##ílios
242
discricionariedade
demissão
##utar
consular
lí
##ke
237
claramente
adaptação
gle
hed
anp
pedag
arguição
água
firma
lá
##ivel
238
demonstrações
corpos
justo
##valo
classificação
##provisória
preve
prestada
consens
respeitados
atualizados
explos
precatórios
conjuntamente
óleo
necessária
elaborados
450
ros
##rilha
##irmou
pedindo
vaz
##39
##ácio
742
testes
ocorridos
##inal
concluído
irredutibilidade
veiculado
##rupção
##rista
sessão
escal
superf
cíveis
##enções
prom
chefes
prequestion
munições
independentes
globais
pm
##ate
##mbia
comparecer
colonização
273
exigibilidade
418
números
comparecimento
avul
usos
##lv
perd
circu
expedida
subjetivos
composição
desb
atenu
marítima
rejeitada
litigantes
descabimento
paralis
gri
ton
##assem
ocasion
convocado
##isão
adequadamente
descritas
crescente
consistente
##divid
consenso
crivo
285
tjpr
269
689
procedeu
concedo
considerou
acréscimos
atendam
leite
construir
beneficiados
entrevistados
ea
##34
atest
transição
prejuí
câmaras
desconhe
irrigação
##aria
##tera
possíveis
representações
ataca
fizer
soberania
##cc
prepon
##misso
tivesse
organizacionais
##anhas
soluções
##financ
veículos
##́cias
processados
formada
eduardo
445
suplementares
recre
##utação
internação
pensar
ideal
missões
inocência
sufra
confissão
cooperativa
595
660
revelou
movimentos
apropriadas
conveniente
competitividade
##inistro
004
##ônus
afastado
apostila
caminho
listas
estende
praça
vete
legislações
licita
versado
harmonia
sh
297
comissionados
deveriam
percepção
assemelh
violações
427
divulgação
especificações
diligência
incremento
interromp
eixo
emisso
estender
capita
363
legislativas
originários
sch
denego
258
quantum
##oneidade
cau
024
368
explica
revogar
universal
subsidiária
fut
gar
##38
repressão
251
muti
encaminhado
deduzido
suspensão
dissentir
oc
desistência
suprim
passível
pacto
cito
ética
##fase
definirá
321
fabrica
##erto
##cionalidade
orientação
440
##étrica
fluvi
nutri
devedores
1960
compreensão
sessões
245
vas
partida
mapa
posta
montantes
apontou
operacionalização
espont
implementada
dizendo
##cleo
executada
administrar
usufru
contenci
respondentes
substitutos
bancário
permission
liberal
333
plataformas
wgr
certos
sint
reaval
1943
cader
entrevista
recife
inglês
nomenclatura
pág
indispensáveis
hedion
##enagem
captação
officio
##ália
tjpa
substituído
excluir
##ril
intra
cardos
221
267
títulos
##írem
550
delegado
concorda
perguntas
cens
ciência
795
estipulado
invocados
maternidade
carval
351
540
impugnar
475
514
##dadas
diária
nexo
acolhe
##fé
##postamente
expedidas
classificadas
reino
387
indeferida
clá
delegacia
conferem
calamidade
aí
ningu
doutor
alvo
requisitar
alegando
comprometer
escolhidos
prove
##istemas
diferenciado
usar
ipea
tent
partid
anexa
295
editada
decisum
combustível
futura
##del
##ígio
delitu
provisório
atribuídos
mone
711
acrescidos
independe
lógica
fome
##iciamento
##dância
##ívia
realizou
276
safra
paulista
ár
503
decisório
impossibil
##rs
275
##ricamente
motivada
304
promovido
judicialmente
analí
gratuidade
outorgadas
mus
tido
confid
olímp
inerente
##estadual
##31
extradit
##mbol
reconhecidas
delegados
##aldo
322
reunião
florestas
472
latina
dominante
subscrição
disponibilizar
exemplos
##estralmente
poupança
##inada
##uls
acent
mandados
passaram
438
controvérsias
erário
##ire
##elion
organizados
campinas
preenchidos
queda
alter
semi
transferido
##bas
diga
representado
apreendidos
campanhas
significado
aquisições
defensores
##cindi
##caput
compartilhamento
carcerário
bônus
gesta
##́vida
potência
10a
promotor
296
cidada
ocorrida
tributárias
assegura
políticos
##úcar
719
##udos
perfeito
finalmente
315
pessoalmente
juíza
trf5
abrangência
periodicidade
faturamento
987
http
incompatibilidade
vendedor
##ritariamente
##zoito
embra
individualização
ocorra
desprover
envolver
circunstan
notícias
##deste
induz
usurpação
coato
330
323
760
franca
entorpecente
redistribu
vamos
##ína
escu
formado
encontrem
deixo
##ari
ades
##tadoras
615
efetivada
##ídia
supostamente
expendidos
252
cinqu
configurar
dirigido
orgânica
corona
##istir
mú
viagens
593
analisado
condicionado
cadastramento
penitenciário
rendas
1961
372
amostras
laboratório
voluntária
##tecn
repetição
cotejo
lou
imper
alude
contratação
005
específico
425
produzidas
1946
núcleo
289
303
matérias
impetrou
preliminares
comparação
255
senão
distingu
15a
##ificadas
234
tjce
exigidas
recomendações
aluguel
dé
minutos
visão
consolidar
recíproca
##trabalho
diretas
encora
11a
organismo
dispêndios
847
remunerações
lin
dezoito
contabil
promoverá
gerir
revelam
##vs
formato
cabec
263
usuário
líquida
investido
ventil
lidera
restante
realiza
relatórios
permitem
cenário
reembolso
##execu
358
tornou
##ervação
786
coloca
esclarecimento
##efici
atendendo
devam
propostos
biodiversidade
video
interessante
##ícias
variável
##orreg
##respec
funai
336
solicita
americanos
concessionário
##ies
##tizados
bolívia
disponibilizados
rotinas
contrário
criminoso
classificado
473
lití
tjsc
língua
arrast
##cte
lotes
243
457
abrangidos
imóveis
intempestividade
rá
vel
##ticidade
331
filoso
açúcar
##lveda
participações
esbar
265
299
mantém
houv
renova
reincidente
fornecedores
##iões
despa
observação
localizadas
ilícita
protesto
318
386
métodos
doart
pós
unil
constrição
307
964
aquisição
##aix
organizada
argumentação
solicitações
compreendendo
trâmite
adotará
interrogatório
tram
causado
adul
postura
314
tjmt
remanejados
orientações
cór
dal
pilo
habilitados
bole
secund
coatora
registra
distribuído
limitações
dnit
evo
fornecidos
trazidos
aeroportu
vulnerabilidade
##elionato
prisões
expressões
concentrado
socioeducativas
metodologias
##grafos
1982
armada
reprodução
microempresas
carvalho
cinquenta
jan
pp
tol
totais
instada
impossível
bancária
tjrn
status
insurgência
ribeiro
8°
ocul
voz
exceções
restabelecer
estarem
sucesso
xxii
420
selo
anôn
enum
##cedor
290
utiliza
formais
311
obrigada
litera
##́gicos
estatísticos
13a
providenci
496
783
fenôm
agricultores
##iador
##́dito
vierem
corporação
lap
providenciar
383
aposentadorias
272
512
habilitado
atendido
outrossim
divers
antiguidade
1952
estratégicas
ingressaram
indenizações
aptidão
ader
cuidado
inafas
encaminhadas
embarque
650
gerenciar
difus
cassação
##especial
obtidas
elevação
geralmente
262
frag
estratégica
##úlveda
minu
443
trf3
àquela
sepúlveda
solidária
contidos
##utes
##icídio
judicialização
403
àqueles
declaratória
normativas
335
proporção
jogos
previdenciárias
específicas
from
veterin
medidaprovisória
consignação
história
penitenciário
##estro
necessários
ocorrência
qualitativa
irrelev
empí
485
580
pleit
paridade
006
identificadas
desembargadores
##cantes
##ún
##ológicas
contex
alocados
córre
ape
sf
305
##êsas
condenação
jurisdicionais
praticada
deduzida
##ance
impera
380
sólidos
##ívoco
##pela
##istente
corro
neut
302
painel
inco
verde
abrangendo
cabeceira
815
releva
negócio
indivíduos
intervenção
cit
##urg
##nó
##araço
prestou
contraria
condenada
324
602
antid
superar
peculiar
censo
##gen
##ênci
retido
apresente
##abe
pequenos
legitima
legislar
remeter
componente
estoques
confundir
##nça
##timo
conform
deslig
compras
desenvolvida
tjam
enfoque
##ialidade
déc
17a
terrenos
critério
desin
prestadores
coordenada
promovendo
##ênio
investigação
duração
616
espaços
significativo
deferido
genéri
fornecedor
tv
##mentando
##andos
12a
##ionamento
inserção
declarados
aprovação
transportador
1978
obrigações
527
piauí
tratada
minim
310
assegurando
comprobat
requerimentos
implicou
suspensos
capitalização
debênt
restringe
oab
maus
inovação
sinal
##firo
econômico
refinanciamento
menção
fixou
inaugu
manifestações
litiscons
##oda
quantidades
indicará
propriamente
científicas
concorrência
apen
confro
concepção
produzindo
desafio
##classificação
##idura
portadores
inser
representados
recomendação
subseqüentes
várias
##vírus
##erado
14a
tecnicamente
1950
##desenvolvimento
fri
vital
##atividades
docente
noart
iniciado
prefeitura
disseminação
##tribun
ecos
fute
##49
241
colaborar
moralidade
notificar
##ties
fá
tributados
fiel
renováveis
preços
transação
instituiu
306
tjgo
345
controlada
arrecadados
ilícitos
##segurança
futebol
neles
inque
concessão
022
ocupado
socioambi
aéreos
vetar
destacam
247
elaborada
532
especificação
expectativa
céd
excedente
promulgo
incer
abst
beneficiárias
óbices
influência
##pare
observaram
cientí
desfavorável
representação
620
##aterais
##olog
reajustes
habitacional
003
18a
tjpe
385
emitidas
acumulação
rodovias
interamericana
##rí
suprir
equivo
sustentado
moreira
proporcionalmente
dem
paraíba
rocha
sanitário
originalmente
obstá
tjrr
considere
varej
##emo
expostos
legíti
solicitada
científicos
difí
vênias
idoso
republica
##ológica
telefonia
democrático
inventário
probabilidade
temática
baseado
doministério
932
análises
comunicará
bagagem
monetariamente
cig
##téc
286
ocupados
##́gicas
completar
referir
custe
obsta
ful
##corrente
332
465
transformação
técnicos
16a
apresentaram
identificada
alinhamento
coação
marcas
estações
opinar
424
eletrobrás
histórico
subjetiva
urbanas
dinâm
iné
arro
impre
tjpi
méxico
levado
convers
implantar
major
diretora
eliminação
sarg
##igra
##process
instalação
genérica
proprietários
inserido
feminino
##organização
tjap
fabricante
dalei
secretário
adjunto
##departamento
mobilidade
##constituição
298
através
reformas
deficiente
this
específicos
hierarquia
correto
discutida
acred
difí
nunes
aptos
transmiss
268
abertas
líquidos
iniciada
inadequada
##́cio
##van
##üidade
publici
expressão
656
secretariado
subscrito
dimensão
lotados
integradas
provisórias
recentemente
019
possuam
734
caracterizado
cost
reiterada
reversão
deputado
##up
esteira
tjal
suspenso
doméstica
cambial
ot
publique
489
subsequ
notificará
pudesse
entendido
endos
destacado
clientes
observem
##ritária
364
##ândia
diplomáticas
eletrônica
fcpe
##dão
tjes
261
denú
réus
internação
emprêsas
hel
##́tri
impressão
344
previsão
doméstico
20a
cumpridos
consignados
fizerem
aprimorar
##íssimo
exibição
herdeiros
atualizada
introdução
houvesse
ví
salas
certas
aceita
encarceramento
fisco
##uas
##pará
##ner
##ill
fundado
##prevent
violado
estatística
greve
##ólio
22a
325
afastou
diagnó
##its
contido
editais
591
freqü
non
cumpridas
curto
revisor
assinados
464
volunta
índices
inexistindo
baliz
inúm
parentes
instrut
294
córrego
##inos
destinatário
veiculada
868
remetente
restabelecimento
cí
pnd
qo
mudanças
autênticos
especificidades
conve
##quad
mãe
tjro
prejudica
passagens
##́sito
espacial
química
precisam
##ônico
##alub
defender
##ancela
aquavi
américa
atendeu
cvm
##pia
##essas
19a
depar
##cioso
expedirá
instaurado
inconformada
socioeducativo
acentu
ecoss
##crevo
votar
opinião
sobreviv
enunciados
gostaria
##tima
porcent
aeroporto
emprê
desemprego
referencial
produtivas
aduaneiros
indeterminado
cidadãos
has
##99
##órica
ouvidos
subvenções
conjuntos
separado
##exercí
##dice
análises
envolvem
joão
colegas
feno
ss
corrupção
##tenção
usados
639
865
parlamentares
estudante
##san
interse
##conha
dezesse
613
deixando
regulamentada
armazenagem
depreciação
inda
##olução
##ting
protetivas
hospitais
promulgação
relevância
coment
redig
paut
eleitor
método
trf2
fluxos
684
remuneratório
descrita
antecedente
##independência
nel
##jamento
24a
359
771
habilidades
investidura
year
##ep
##gon
insubs
301
programações
mensura
desembol
parâmetro
##adura
##alh
concom
mau
obtiv
alu
garantida
291
xxiii
assiste
did
especialidade
21a
253
correios
366
483
##faz
impróp
acondi
leilão
viz
augu
articula
siafi
##ômbia
adent
fals
634
791
fies
atinentes
aeroportos
resp
valora
embaix
ressalte
078
quarta
madeira
romano
desdob
leste
quinh
##tiba
##anal
##união
309
multid
565
890
telefone
dedez
velo
##eleg
sudam
espé
subt
dispensado
higiene
debêntures
cita
tjto
431
768
acrescenta
##́qu
##íci
peda
benefic
piso
destarte
insalub
território
abandon
##ívoca
##eiri
##mputo
vejo
067
080
arrecada
razões
concomitante
##ardi
levou
corporal
afetar
vargas
corresponderá
##social
274
colômbia
próximo
##governa
confronto
racio
tjse
sucessivas
tipicidade
marítimos
tjac
parâmetros
##ama
manip
equador
recondução
028
prêmios
suframa
##jus
daindependência
club
resultou
escolher
906
banca
inadmissão
1955
modificado
supervisionadas
patrimo
sucessão
cruzeiros
notícia
privilégios
direção
alteração
poderão
026
reguladoras
geografia
disponibilizado
exemplares
fenô
carreg
682
liquid
restringir
compo
garantindo
encontre
evidência
elétricas
frequência
plaus
comprometimento
responsabilização
detentor
rat
estável
##mping
alco
maneja
polo
destacando
determinei
##age
cnp
tjma
falecimento
federados
578
dispensados
canal
recipro
gleba
interestadual
infla
308
colegiados
cadastros
nal
##az
indefiro
situada
23a
corrigir
imin
coefici
notar
##jetos
410
487
sustentam
santana
sentenças
computado
preparar
constatação
evolução
destitu
fac
infância
juridicamente
controver
mascul
químicos
capitão
antigüidade
desempenhar
ofício
##rovia
##viamente
concretas
satisfazer
pratica
##prof
ligadas
prosperar
##rade
##asso
dilação
interlig
##culas
suprimento
abertos
code
discurso
subsistência
colegialidade
enquadrados
conferências
transgress
desenho
condutor
reintegração
ras
##º30
##̂nica
contenham
007
confirma
727
pronunciar
desburocra
analítico
oart
##ser
##xima
##ali
##idem
##istência
impar
atuando
buscam
faixas
exceção
cometidos
enfrentar
prejudicar
filosofia
coca
verm
mercante
obrigatórias
opinião
repercussão
##ulto
súm
judica
415
632
continuará
bilateral
século
##46
293
identifica
crédito
assentamento
gratuito
cláus
vieira
respeitar
respeitada
edito
409
370
451
seleção
alcançados
intermediários
indenizatória
digitalizado
reproduzo
pira
##unidade
preto
adv
off
ambientes
392
azimutes
afetados
terminais
desastres
patrimônio
assinar
modus
482
730
qualificada
videocon
bern
##emora
deficiência
##40
##ones
##cex
formalmente
stm
arguida
regulares
gerencial
melhorias
abstrata
fixará
procuração
obrigadas
717
útil
ligados
acabou
##exercício
dedezembro
itin
anoto
individualmente
propõe
fechadas
deduzidos
imobiliário
atinente
transformações
mutuário
encarregado
prepond
gq
##tabilidade
aparelho
computados
doutrin
salvaguarda
difícil
##ez
atestado
455
785
denegado
jorge
imprescindi
salient
toma
instituídos
##êndio
492
convertida
regulamentará
observou
##ted
regidos
café
publicações
797
excluído
mobilização
indicam
ribei
propiciar
software
vic
jurados
605
encerrado
embalagens
ignora
##ry
##xito
##ânt
condom
##ística
agência
348
inexig
031
538
inep
confirmada
convocados
fiduci
##́cios
##rimon
##rindo
prestam
##execução
criminosas
requerem
governadores
govêr
subche
367
474
articulação
999
erros
serventia
contínua
##cir
maconha
mód
consideração
informará
apuração
##companh
faculdades
chegada
oferecimento
unilateral
##yal
proceda
688
965
inscrito
bilh
injunção
##ativos
##ólu
reab
##erada
##cau
750
andrade
excluídas
impresso
postulado
totaliz
árbit
##iência
conhece
vac
semanais
repassados
acumulada
plantas
salvador
tendência
rara
tinham
ocupar
651
jornais
aspira
cél
comissões
exi
##izações
defiro
falha
025
livremente
esforços
isolados
##gares
##rino
rena
##plan
pese
prédio
buscou
gross
subsidiárias
automó
ferroviário
##alha
lopes
demonstrou
proporcion
842
735
variação
urbanização
subsidiariamente
qualifica
##umes
correlação
ressaltou
dizem
prospec
corréus
inequívoca
literatura
pleiteia
##47
tjpb
carandi
privativas
pretendido
carandiru
no1
##residente
favora
postais
soldo
sanar
780
montagem
##óxicos
corréu
lc
##mil
participaram
diferenças
designará
recolhidos
encerra
escolhido
##hn
isenções
##cine
##ré
secas
##dust
gran
352
375
035
enfim
fis
##aco
##ciando
integrados
##radora
concedeu
estrutural
973
indústrias
acionista
formulada
cigar
##gará
##cará
622
477
462
713
propriedades
seletivo
certidões
##anex
faltas
assentando
##32
condão
interst
precedida
usado
expedidos
voltado
869
controlados
suscitadas
confederação
##valor
subsecretaria
perió
vegetais
##publ
desar
##juríd
##quências
gerenciais
difícil
mm
##uf
findo
explícito
850
constata
proibida
pretend
recomendar
notificado
lapso
##pra
progresso
##eração
entendendo
altura
##char
341
998
disponibilização
emo
033
assinada
afeta
depositado
assumidas
contempla
enor
clare
uniforme
rodoviária
reabilitação
sindicatos
##sse
##ót
##riae
##idamente
royal
moratórios
sustentando
ilici
conciliadores
concernente
inácio
##usa
354
subsequentes
reiv
entregar
primeiras
estatísticas
ips
separadamente
permuta
multidis
##́ticos
##sticas
lugares
sampa
operandi
##ópicas
acolhendo
confiança
extraditando
##pcia
propositivo
702
indireto
836
liquidez
máximo
govêrno
ctn
##esel
009
presidencial
ressalto
identificado
rejeito
audiovisual
##ídios
##anterior
imigra
condenou
##respons
643
colenda
conclui
incorporar
idêntico
oce
##úm
provoc
361
empregada
colé
prorrogar
planta
persecução
##arant
##tração
fundação
bacia
ficamcon
490
hostil
li
curi
procedi
416
481
demonstrativos
reclamações
confidencial
520
pura
manterá
##igura
066
requeridas
periódicos
desob
##órgãos
decon
##tamentos
limitou
comunico
470
aeronáuticas
privilegiado
indicação
pertencente
eletricidade
##tribunal
##fb
##çu
##cultura
estudar
421
619
cálculos
dependeria
reformar
inépcia
##°30
altos
regimentos
##corrido
ordinários
649
enfrentado
válido
##vincul
##áb
obte
eleitores
414
396
690
hipóteses
terrestres
bebidas
mestre
##terio
extraordinárias
beneficia
337
505
549
máximos
padrões
cessação
incorporado
preterição
níveis
conec
2022
extrapol
desapare
companheiro
arquitetura
sampaio
ficamconvalidados
retar
##aros
indéb
partilha
exerçam
030
mencionar
alcoól
##toras
caixas
altern
##ualmente
mestrado
413
financiado
beneficiar
1951
apontam
iptu
ocorridas
##vesti
coron
074
##inciso
padece
clareza
##álogo
atendida
processada
justifique
##cipação
disputa
498
dedicação
tamanho
btn
mara
##og
logra
cpf
memória
estatísticas
sugere
salvamento
sedes
congress
participante
##êsse
renun
546
##́ss
741
variável
admissível
##composição
##pu
##bri
arrol
presidenta
reconstru
falsa
502
979
básicas
caracterizar
sofrido
contínuo
sexto
##dãos
##gráfico
840
376
398
gestora
velocidade
site
##upe
##islação
secu
seqü
aditamento
aler
aprecia
353
374
coletividade
657
encaminhada
mandatos
senador
##efe
especialização
627
737
910
ampliação
oriundas
signatário
cofres
pergunta
adultos
corrobora
cocaína
##bc
publica
atribui
procurar
362
567
981
678
colocado
fabricantes
concentração
futuras
auditores
promessa
##ped
002
raça
bilaterais
autônomos
questionamento
indicações
608
telefônica
esforço
precisamente
automotores
farmacêut
9°
nossos
distor
afastando
661
096
reuniões
depoimentos
amplamente
punição
móvel
sanciono
arrastam
##íl
aderir
colocados
afirmado
laboratórios
irresignação
inmetro
notur
##idou
outrem
827
inadmitiu
##han
##tivismo
##queio
##çam
##deo
##vidor
resulte
841
olhar
efetivar
preocupação
indivíduo
energética
cogitar
contencioso
imparcial
daconstituição
noci
segura
turno
isenta
opresidente
931
521
782
625
facultada
diplomas
voluntário
teix
##orça
pressão
pertencer
hierárqu
fusão
convenção
bair
adimpl
010
impedido
cobrado
manifestação
fiança
transformados
coator
destaco
aquicultura
falecido
876
majorado
##erviços
multidisciplinar
quórum
queixa
aplicará
compreendidas
cs
restando
opção
encontros
postula
acordado
terrestre
prejuízo
##preventiva
##bor
judiciários
solicitadas
654
acadêm
augusto
ber
##tif
855
habitacionais
pedago
momentos
transcrevo
convicção
informados
inscritas
fronteiras
acontece
isoladamente
reafirma
dimensão
averbação
royalties
cib
##determin
##urb
apresentará
pacific
correspondem
deferiu
caminh
retirar
acórdão
##profission
fórum
rios
confiram
destinam
criminalidade
439
litígio
escritórios
decorrem
equiparação
repetitivos
cunho
sid
prolação
##rioridade
eliminar
907
560
disponibilidades
antigos
dog
##indust
regida
quantias
501
488
possua
995
concentração
essencialmente
flo
vera
cotid
enrique
##prete
##enses
11o
mineração
382
559
consequências
1940
progressiva
cartão
europ
teixeira
##tagem
destinar
enga
previdencia
060
elo
ntn
odisposto
##tirá
##isto
anat
adpf
10o
curiae
época
436
auxílios
livramento
efetivação
pg
ás
alc
453
484
469
exau
mútua
##ler
##c1o
##jar
administrativamente
introdução
comprometem
##funda
sort
##qualquer
##idão
produtivos
convenci
encontrados
434
884
comprovadamente
467
048
1953
próprias
positiv
atletas
utm
##ung
##formou
##lementação
##ifi
adiante
408
custodi
verbetes
afirmação
artificial
pj
008
##ficiência
590
residual
sustentar
desmembramento
coronavírus
advin
disponibiliz
eficácia
pleiteada
mapeamento
##erário
##tativas
estelionato
acompanha
432
397
naveg
signatárias
gravoso
aa
##57
##unda
trasl
preventivas
733
delegar
remetidos
1934
##gráfico
depreende
monocraticamente
dinâmica
##rimonial
##udia
inid
adotando
542
colhe
justificação
which
ofende
curricul
390
808
perceberão
tô
enca
13o
apresentem
importado
adequação
conceb
arrema
isolada
cumulativa
formulados
trânsito
apostilamentos
cardoso
##56
respeitando
violação
02a
448
oportunamente
cedido
sindicais
hospitalares
acórdãos
jardi
vil
socor
##ionar
vere
diverge
422
disciplinas
646
1954
csl
work
inpi
impesso
garante
508
expressos
inov
698
transferidas
imputado
concordância
perigosos
610
xxiv
privacidade
incorporadas
resguardar
was
deco
indulto
constarão
393
vencida
655
779
1957
onze
evitando
penitenciária
tonel
##âncias
emend
##ciam
##ney
01a
livres
exercerá
inspeções
floresta
contempora
reprovabilidade
exor
reger
523
privação
portuárias
subordinado
fuga
denunciar
carcerária
redistribuição
incidirá
jardim
##úncias
diferentemente
389
016
inativo
fgv
desigualdades
distância
averi
dedica
##osidade
remissão
##tia
##ciante
castro
977
possibilita
subordinados
qualificados
recusar
predominante
##inados
extraordinariamente
338
844
594
poucos
fenômeno
motiva
agrup
embargo
alcançado
##xxx
assumidos
csll
##éria
##magem
coordenadores
668
vistoria
##brasil
##público
dita
pôsto
##edida
adc
constituindo
##ixos
pugna
muita
alterações
419
fornecido
integralidade
versão
##recursos
interferência
apreço
852
662
selecionados
bilhões
prestadoras
tarifária
seções
proc
##mod
interposta
segundos
coordenado
situadas
329
superintendente
##gráficos
subprocuradora
boletim
##50
inqui
contín
abar
##tarem
chico
excluem
circunscrição
courts
ang
##corp
motor
349
369
381
517
convertidos
tecnológicos
postulados
florestais
solidariedade
fenômeno
##oel
reposição
ponta
romp
807
528
apelante
mobiliária
ilumin
infringente
ferroviária
##̂nt
prescreve
##condições
captura
agôsto
sanitárias
887
618
971
residencial
gerando
difun
apropriada
esforço
##hal
atendimentos
visam
funcionários
790
transferida
lavratura
cristalizada
##icadas
motores
lacun
373
621
515
510
escolaridade
apropriados
múltipl
vacância
##tária
##itário
processado
871
sensibil
descentralização
multilaterais
##ok
prestador
##andes
cooperar
lanç
rescind
fórmula
cômputo
##ílias
anac
promovidas
411
423
incomple
contaminação
impertin
beneficiamento
vinho
493
714
numero
examinados
inteligência
endereço
frust
correlatos
sugerir
##gat
quis
representada
justificado
898
##cráticas
questionada
examinada
delegacias
alemanha
mão
tive
##erável
ponte
##ferir
recentes
famílias
579
962
incorporada
constituirá
carb
15o
esteve
cnpj
correspond
duplo
071
decidirá
domicílio
sugestões
redação
ital
omit
##59
##hab
##alves
demandar
648
837
admitindo
fruição
introduzidas
desburocratização
hec
##54
##poss
empate
causalidade
benefício
pericul
empregat
solicitados
446
513
variações
inadimplência
vivos
##conhe
liberdades
032
623
propag
dissolução
surgimento
dividido
##gráfica
curitiba
apresentando
693
61º
observações
oferecidos
##impor
##we
##cis
vencidas
implique
941
encontrarem
óbito
acordados
##ava
##íamos
diretos
lago
606
533
539
739
##competente
amar
##ella
##istos
presa
entend
mesorreg
leve
461
870
##íssima
colégio
feira
extração
administradora
tecnológicas
investidos
poluição
interstício
fon
##veram
##anas
polit
promotores
acompanhados
401
1948
mód
periculum
720
lidar
doura
##leos
juristas
primária
388
levados
indenização
concorrente
combater
comemora
##ntegra
preservação
direc
##vér
##ístico
crítica
547
938
479
531
986
consequência
portuária
diplomata
territoriais
uniformização
##ulho
vejam
cliente
##prop
626
040
completamente
##impos
borra
afastamentos
religiosa
irrelevância
5ª
pare
consulares
avaliados
709
878
830
integralização
temporários
facilidades
restaurativas
salariais
prolon
cho
##iça
##mg
valer
associada
telecomun
685
766
reflexão
antecipado
potenciais
recibo
majorados
socioambiental
oa
##dãos
##ancia
intervalo
##rául
equívoco
falsidade
adequar
458
implementadas
592
beneficiado
617
habilitada
experiências
estratégicos
incapaz
decorridos
refletir
##cy
19o
una
566
concluída
fortaleza
obrigação
baixar
641
particularidades
manifestaram
lula
testa
##dist
##ilha
verificou
435
701
764
temporariamente
superfíci
amo
##tatis
versão
prisãopreventiva
55º
960
absoluto
selic
dene
dedic
deduções
##grap
mac
new
antiga
arranjos
bl
sar
trig
##sub
exat
##const
operadoras
rota
acórdãos
idoneidade
empresariais
trt4
assistentes
elétrico
compuls
##cinde
##correspon
12o
regulada
reajustamento
##ânia
agropecuários
aragua
cognição
perde
fung
envolvido
filiação
convocada
trimestre
820
reins
16o
minora
instruído
499
08a
07a
1949
elétricos
pinto
parágrafo
##direito
##ping
prona
lein
##loga
pesqu
846
03a
629
712
05a
formuladas
reformada
jamais
##erviço
##58
constará
04a
convocar
preferenciais
aço
missão
rm
representando
regulador
09a
acusatória
longa
graduação
subordinada
somália
##fatos
##hi
observarão
estruturais
06a
704
consentânea
sho
##ef
##́rito
seções
##unção
aglo
formulação
trt2
631
trazida
notarial
medicamento
metrologia
mitigação
evocado
bn
##udio
unitário
confira
abrangente
enviar
enviará
pretexto
próximo
##umb
##prov
##si
persegu
##áveis
duzentos
486
##́sitos
428
comprovante
representatividade
proibido
promulgado
mutuamente
multiplic
doc
daadministração
##oramento
##nacionais
proferir
569
portuário
remédio
oferecida
pru
##li
##ía
redu
##gura
viú
autorizadores
sair
##munici
quadrilha
##justiça
instalada
amol
aceit
hipote
cír
oci
##nn
##ânico
dens
##ini
index
nomear
706
apontar
quantitativa
##equil
inquérito
##erações
20o
determino
titulação
associadas
647
991
monteiro
indenizar
798
assistenciais
complexa
deduzidas
equiparado
bloco
gr
conqu
soares
integrarão
402
##ógicos
gua
635
463
529
740
consolidação
pretender
dmf
694
errad
satél
proveito
oita
sm
tidos
##fix
##nor
nobre
rap
determinação
530
trazido
atingido
contingência
lembrar
egré
enferm
tic
perdi
##cautel
apontadas
trt15
justificam
convidados
ninguém
cana
##aes
##jul
quero
deserção
trate
cacau
eleições
considerações
731
hidrául
desfavoráveis
parente
407
935
699
426
587
magnético
engenheiro
suci
àqu
##irá
encaminho
728
trt10
fluvial
mail
encontrado
estupro
escritório
influência
levada
substituídos
proposições
solucionar
voltar
##́lios
bloqueio
ên
##fiquem
apên
forense
seguido
julga
lógica
17o
##endia
denominados
contemplar
transações
##ocial
##aturas
demonstre
379
561
mensagem
756
775
privatização
exceda
ligação
computador
barreiras
cisão
descam
##ibus
recru
612
804
originárias
675
##entre
aladi
##iba
mostrar
receberá
preencher
legítimo
ther
##endam
##rinho
950
1958
responsabilização
desnecessário
alcançar
##esus
intér
impondo
##clara
marcel
correição
342
trt3
cobrados
alocação
advertência
flexibil
censura
resgat
fixando
##iguel
405
442
883
jovem
738
050
917
724
gabri
preliminarmente
detalhado
acarreta
satisfação
dnpm
interceptação
nelson
##den
exerci
cultiv
aproxima
417
638
evidenci
parceiros
reservada
cassar
consecutivos
ênfase
sê
desat
regem
cinema
599
911
implicaria
perceberá
##poderá
observo
prejudicialidade
sn
tub
tentar
##ogia
exercem
##ventura
dispõem
desprovidos
onu
colaboradores
prevê
ari
eixos
##fim
##tistas
##idora
trabalha
854
017
524
924
dissídio
diminuir
padronização
brig
rót
##ôres
378
630
707
070
sabemos
mostrou
importadores
provar
constatou
get
ineleg
exerça
invas
##osamente
trt8
441
comprove
residenciais
petrobrás
matriculados
anônima
cron
##úrg
##rico
##represent
regido
escra
##vimentos
prescinde
editado
xxv
arquivados
autônoma
##caracte
##orçament
incidem
##randa
instruir
545
391
680
implantado
concepção
aperfeiçoada
questionário
imputada
descentralizada
descaminho
##pido
##ciente
temática
referências
##agamento
trt7
526
752
urv
prevalece
prolatada
velloso
condomínio
denegou
##ctro
18o
980
ensejo
ipm
trt11
autenticidade
inexistir
inversão
literalidade
estatutário
metropolitana
##mindo
foz
investigado
trt9
604
andré
trt19
novecentos
tripulação
##camente
participa
convertido
787
897
audiências
cunha
##oge
##garant
comandos
enver
##ológico
trt5
decorrência
fcvs
republic
preconce
##cust
interdição
trt23
interpretar
456
412
933
domicílios
remoção
recuperação
##rei
intergoverna
transição
##rárias
determine
525
equivalência
eminentemente
##ínio
sensu
invocado
ecossistemas
exara
carro
agências
697
dependências
nutricional
fio
iu
##ding
##ãe
de200
exista
preço
consor
competição
664
985
872
896
792
navais
costumes
obteve
fnd
obviamente
controvér
468
trt13
trt18
apropriação
prescrição
aguarda
horários
feminina
omissões
reafirmando
diagnóstico
m2
quetra
diálogo
ministrado
qualificação
##ifa
trt22
930
586
volumes
trt14
diminuição
decadencial
provocar
imb
##não
##dará
##riados
ouvir
14o
633
discriminação
rodoviários
automaticidade
memorial
pist
compostos
deson
posso
##estres
comunicado
precedência
exigindo
exigiria
chancela
organizadas
trt6
descentralizadas
circunscri
##cão
administrado
##ervos
denúncias
atualizar
018
670
melhora
trt12
viabiliz
territórios
permanecerá
sequestro
##fisc1o
silveira
##̂nea
deram
incons
cautela
julgadas
julgando
procede
determinações
invál
encontrando
protocolizados
466
708
supervisor
instaurar
convidar
dimensões
módulo
evas
lícita
pormeno
capes
ofendido
estariam
table
511
860
monocrático
trt16
códigos
ilustra
próxima
amigos
explosivos
mãe
suse
vigésimo
procederá
resoluções
bombeiro
inexigibilidade
impuls
##rédito
507
046
chave
observância
desembaraço
detalhes
salienta
estimativas
tributária
inadmitido
retomada
alterou
empregatício
propagação
ava
tráfico
##vedo
elevar
21o
trt20
749
exportadores
outorgados
prestadora
penitenciária
espontânea
intrans
proce
agre
estabil
empresário
812
572
prioritariamente
confunde
nit
qa
##dições
trt24
564
fernandes
cinematográfica
aeroportuária
emprêsa
enorme
seara
façam
escrivão
835
praticadas
vencedor
incólu
consigna
rotina
crítica
##anexo
incólume
lícito
docentes
emissões
descre
presti
interpor
antepro
23o
509
usinas
trt21
apuradas
695
574
570
evidenciar
abrangidas
perspectivas
indígena
delimitação
##dest
adjud
rafa
ratificado
formar
preenche
positivos
décimos
anatel
##entidades
discor
func
constitutivo
substituída
##ógicas
476
fundamentar
079
aze
925
774
770
celebra
mobilização
gis
##́vidas
deque
comento
pretens
10º
tempera
primor
equalização
investigar
dispondo
581
figurar
físicas
epidem
gonç
##fre
##gando
impo
disposições
mandam
servidora
laudos
692
732
686
874
772
fornecida
reduzidas
ajustado
imunidades
questionado
subordinadas
tratamentos
22o
contribuindo
628
573
577
952
moderna
cibern
kg
bachar
##andro
usina
497
776
observação
investidores
constatar
perfeitamente
noturno
hectar
perdimento
##las
##stor
##mam
servidão
##ffsa
##tizada
444
adquirida
gases
divisão
transformar
compromete
arrecadação
vila
##vando
reb
viável
necessita
sentir
afinal
promovidos
sipec
506
permitiu
556
471
veda
988
642
continuarão
765
inspeções
oferece
prioritárias
habitual
##êutica
##ilher
##certo
passíveis
904
compreendida
começ
credenciados
rumos
conscient
perpetra
##sou
rege
antido
suscitado
psicó
aulas
iad
êxito
##pesso
##dever
constitutivos
0001
suple
preventivo
576
721
vegetação
aludido
estivesse
terrorismo
cj
dil
traje
##ext
abin
sustentou
723
##xxxx
desligamento
ere
##pira
##dro
##isse
noção
proporcionais
384
cobrar
característica
imobiliária
court
bernardo
superfície
susep
mene
resso
##íb
alterados
899
reexaminar
espécie
##ulou
##ions
informativo
##ejus
interpreta
584
subsecre
cláudia
razoável
convencer
##ublicado
comunicada
frequentemente
tenente
##técnico
favore
659
assume
677
separação
esgoto
aquaviário
trigésimo
ph
vender
desenh
luta
459
075
prestará
atingidos
alavan
museus
departamentos
compõem
rafael
##cisão
descarga
##comb
##atários
defendidos
##visa
24o
611
802
743
893
possibilitando
desportivas
horária
societária
cnpq
humanas
amplia
desembar
quinqu
concentra
agropecuário
saliento
egressos
dinam
##tê
dodecreto
acervos
ordinariamente
constam
607
escritórios
769
revit
representativo
balance
disciplinada
gráficos
coronel
##erários
docas
autorização
médico
##iquei
575
trt17
bancárias
aven
confirmando
##prestação
encomenda
impessoalidade
rffsa
##icus
artístico
diário
pares
atas
presidido
ausências
suspeição
simplificado
568
more
ligada
modernização
normalização
conexos
bebida
acolheu
bele
grá
ont
ulti
##dental
contenha
substituição
acompanhadas
sangue
571
recolhidas
liquida
formulário
ingressar
idioma
irrelevante
facultativo
mandamus
##́dios
reen
##istentes
baixadas
circunstâncias
796
829
inspeção
alfabe
subordinação
europe
excessiva
mis
senso
##od
prota
fortes
apresentarem
##priedade
399
pergunt
tá
matem
##itossan
falso
passará
548
710
renovada
somatório
trí
##ecretaria
##inst
entendimentos
##enhor
declarando
baixado
982
consignar
990
celular
exata
resolve
percebidos
tramita
sorteio
##inga
espos
##ídio
atuem
857
cerimonial
encontrava
sucessores
classificada
avanços
azevedo
##ilherme
nic
thes
devolu
acha
neglig
contribui
provisões
culmin
cirurg
377
558
inscrita
reflete
##geno
funde
interiores
promovam
849
escolares
716
subseção
discricion
frete
detalhada
majorada
orientações
biblioteca
transgressão
bilhões
cigarros
alavanca
líb
##ceram
##viu
quadrados
funciona
ressaltando
instalados
continuam
questionar
potencialmente
licitatório
##mia
##gnou
##cador
##eir
carvão
operação
ocasião
século
pluralidade
protagon
vid
##ee
##stem
note
alm
##dum
guim
fornecidas
excluída
liga
ameaça
urgente
preocupa
menezes
miguel
##̂no
nações
contará
preté
considerará
##formações
##prim
tabaco
solicitante
##actu
705
##́ricos
cession
regulamentação
miranda
desnecessária
tecidos
conjuntas
810
687
assistencial
admitidas
expansão
mutirão
ribeirão
mente
reis
ater
referências
889
536
676
sustentável
extintas
facilitação
precário
mínima
artefatos
petição
toneladas
insist
fé
utilizam
junior
014
possuidor
levam
filant
revest
##ximas
rejeitou
contestação
doutorado
circuito
##riu
estabelecem
703
tomado
publicará
oferecidas
portarias
síntese
piloto
balizas
unificado
produc
coordenadora
opublicado
ocorrente
609
antár
090
fáticas
944
publicadas
precários
prescrições
prequestionada
##wn
daunião
criando
dispostos
primeiramente
regulação
816
pronunciamentos
isolado
repasses
##controver
reavaliação
##mbolos
dé
##gh
##entalmente
##cessão
autôno
manus
##formação
concedendo
039
amicus
671
758
956
cancelado
cruzeiro
aderência
920
nulo
tc
##eradas
confia
condenações
informando
subsistema
físicos
087
facilit
desrespe
audiovisuais
circunstanciado
bim
##inado
anotação
negativos
existindo
implementado
862
paradigmas
retroativa
inafastabilidade
other
masculino
enriquecimento
déc
##iel
##cadores
##atis
alist
ordenar
radiocomunicações
agressor
página
reciprocidade
##fil
##triz
##gru
##indica
##possu
exigem
reparos
hera
##desta
##cele
##izantes
##vidência
relatos
aumentos
cartório
disposição
distribuir
taxativo
736
gerente
pleitos
##apresent
inviabilizada
discussões
expectativas
fla
consultor
xxvi
supervisão
640
crfb
controlador
fornece
divulgado
abandono
cédula
fn
##press
repactu
##alizadas
peti
confirmar
assegurem
089
583
tomará
chamadas
notificações
##especí
largura
veracidade
##ger
##éias
##aliza
refl
afetos
ilícitas
diplomático
indisponibilidade
acons
edificações
##desa
##icais
seguem
exercendo
culpos
atualizadas
449
597
894
temporárias
arquivado
sons
patrocínio
ouvida
intervir
pró
##plice
marg
contribuição
##cargos
624
gerados
atingida
citadas
lança
pronto
##edas
dívida
caval
##cere
##tizando
447
537
644
dispensar
cumulatividade
##́ditos
consensual
litígios
judicante
ilicitude
aque
bat
fris
coad
inten
ann
normais
##ficit
mudar
601
799
722
freitas
transtor
interação
linear
inserção
vão
##mé
osatos
atras
##duto
faria
documentação
sujeitar
012
747
remuneratórias
fraud
divulgada
ministerio
superada
denúncia
##uário
##gadura
##ulsão
consultar
priorita
arrecadadas
complexos
reincidência
multilateral
##ivelmente
embaixada
reco
##usse
operadora
equidade
variedade
519
assento
cobrança
fruto
aborda
##edecreto
abusos
críticas
emissora
célere
ria
resse
##nes
##riana
insegurança
2030
##itudes
desclassificação
presas
##ulações
irm
551
495
516
746
823
restauração
alcançada
levantamentos
microempresa
propósito
lín
inutil
cant
declaradas
saídas
causam
expressiva
ocupadas
acolho
frau
##oneamento
comportamentos
##ítica
transposição
munição
idh
alteradas
baixará
instaladas
919
940
placas
iniciou
hidrel
contemplados
solidariamente
##aplicação
dimensões
alusiva
obstáculo
minorante
envergadura
##aos
##caram
anvisa
##ím
##rgio
043
1959
825
oriundo
fizeram
incidental
iminente
apêndice
mex
incontrover
appl
vinc
034
958
ficha
cometer
conferido
constatado
extensão
deser
##tasse
confirmou
requisições
##áss
667
antit
562
777
821
francesa
sintetizado
rateio
epidemi
##rm
##fal
provisão
certi
sujeitará
atualização
protocolado
061
814
##rf
##riano
recomposição
##uno
modos
desper
editadas
555
provavelmente
teorias
947
trazidas
##cumprimento
farm
pior
discre
fauna
##ture
informada
839
afirmam
fique
arbitrado
englo
reincidentes
acarretar
retribu
cravado
##tecnologia
automóveis
vest
##tóxicos
##cm
063
665
809
817
produzirá
obedecerão
autuado
desigualdade
assinalado
índio
rique
dol
transitou
sentencia
condenadas
614
044
encaminha
impliquem
físicos
inserida
tributação
jurí
##tém
recordando
explicar
analít
reside
enquadradas
privativo
motivado
##controle
rt
subja
vetores
insere
elaboradas
853
consumação
significativamente
extingue
psicos
brazilian
genebra
system
##mentados
no9
procedentes
contribuam
analisando
surgiu
racionalidade
parquet
delituosa
lideran
##uperior
desenvolve
avaliado
corretamente
passivos
refoge
diferenci
fertil
094
cobrada
longe
remunerado
equivale
especificar
concorrer
state
hectares
dg
pó
##jas
arque
cuidar
vê
afastados
803
681
729
ajudar
##ricano
deduzir
provisórios
acarretará
pecuniárias
primariedade
massacre
##atorze
##asa
##ments
informou
##mbolo
reitor
geográfica
aproximada
reservado
telefônicas
##teor
alberto
fazend
percentagem
098
672
demandante
denominações
armados
##ânicos
years
indébito
nula
##cd
##bá
die
ancine
adst
grada
##ércia
exigível
859
970
deixam
enviados
réis
##́trica
jurígeno
sic
##́is
maxim
anf
relatado
valendo
afront
065
518
revelando
055
reunirá
789
encontradas
hermen
creditados
repetitivas
borracha
##alter
##ola
##guem
cartórios
negociados
027
553
monocráticas
superado
receptor
apego
viúva
bin
##cru
##estruturas
663
589
763
751
propósitos
substant
chamados
narrativa
dourados
##66
divir
permane
vigorará
658
994
basicamente
papéis
##disciplinar
francês
fitossan
tê
##88
porventura
descaracte
assis
executivas
##eceram
competições
bacias
disponha
603
037
licitante
compensatórios
acusa
mariana
link
arit
nelas
don
inércia
intang
759
excluindo
excedentes
inviol
deriva
signatária
equilib
minucioso
dezesseis
rint
sci
interação
##idoras
nossas
expira
reguladora
continuado
representativa
portugal
provisório
eficazes
padronização
evidenciam
sfh
insalubridade
marcelo
##cr
queria
arcar
marido
mudas
circula
858
966
778
hidrog
mistura
propondo
reembols
##mercado
socorro
viver
##uman
portadora
entenda
plá
anterioridade
rati
##andest
investig
552
082
ocorreram
homologado
filantr
bur
quatorze
despe
acos
perdura
continental
pensão
fronteiri
equiparados
atinge
prévia
prejudicados
densidade
##rimp
máqu
discutido
permitirá
distribuída
distribuídas
856
085
universalização
alternativamente
arbitramento
esgotos
extinguir
##endedores
091
819
fácil
substancialmente
seminário
desdobramento
##aso
interopera
baixos
laboral
providenciará
parado
##imização
alçar
tóp
espectro
web
989
961
eficientes
##passa
resolvida
permanecerão
hierárquico
vô
##̀s
fundamenta
objetivas
demandam
revisões
669
534
954
sobrestados
simultânea
minimizar
preponderante
tôdas
quetrata
dól
ira
##org
assente
negra
tributáveis
937
filmes
582
remunerados
localização
olhos
obstá
veiculadas
##éritos
##́lica
larga
traslado
##bi
##edes
##dimens
altas
carcer
realizam
determinantes
correio
##caso
042
923
precisão
correrá
conferidas
ultrapasse
europeia
iof
##indic
rousse
permanecem
083
588
822
revistas
acessórias
haviam
retratação
##cendente
terroristas
eqü
omisso
tres
##iem
submetem
974
compensar
dissem
abranger
proponente
jesus
##ue
##aj
##bando
##êut
sobress
clandest
repercu
813
dependendo
calculadas
fechamento
regulamentado
assever
acumulado
enfermagem
fras
pé
stu
##ea
##ncrim
conquanto
concla
##ilh
parciais
entendida
aumenta
contratações
transcorrido
necessa
falhas
previdência
##ferências
financiar
652
remessas
homologada
isolamento
balanços
delineado
ncpc
reformado
qualificar
desejo
sg
##íram
##reiro
##ferido
##çou
##álise
levaram
tornam
imputados
##disposições
protegidas
loteamento
##econôm
recrutamento
##xi
recomp
alegou
analogia
805
cadeias
físico
##militar
no8
primárias
estamp
guilherme
implementados
capacidades
compreendem
051
744
##presidente
subprodutos
década
vermelha
##hipótes
##ulantes
##lete
computa
ratio
quantos
mínimas
908
sofrimento
conclusivo
terap
delegações
tributário
desproporcional
antitru
##43
revi
cases
transcrição
abrigo
ressaltado
coluna
concep
basena
urgência
pacífico
formulário
##51
##nter
aplicou
sentimento
clín
patron
##̂nicas
976
916
mostrando
oferecido
superintendências
econômicos
psicologia
intempestivo
dirimir
fd
fico
##rj
decont
presenciais
presidirá
leal
convite
atribuição
treze
demonstrando
versar
preparação
hosped
mús
absorção
sò
##didade
##brica
ouvidor
desma
##mont
##conju
medalha
manoel
médias
passos
alegar
068
impropriedade
depósitos
793
usucap
lavrado
aguardando
inelegibilidade
##itária
10m
extrai
##rizadas
baseadas
##eguinte
##proced
passarão
créditos
verificadas
762
examine
participe
ponderação
ofensor
hierárquica
fungibilidade
amolda
##ricas
ouvi
reputa
##ressão
depen
proferidos
oficialmente
725
gabinetes
terminal
distritais
mutuários
detentores
desembolso
##profissional
avenida
##vias
envel
salário
importadas
incluirá
843
011
automático
combinação
responderá
engenheiros
asser
justicia
negada
favorecer
suspende
construções
##ésimos
universitário
houverem
símbolos
submeterá
diretorias
bené
concorrentes
desempenhadas
horizont
divirjo
dão
velho
êsse
interme
une
##cagem
##estados
rate
segredo
saque
permanentemente
diferenciada
41º
homicídio
reflexos
apelação
difuso
protegido
exercícios
##estabelecimento
fraudul
citação
##ule
##izou
##ributos
achar
enx
##órcios
alimentação
927
trop
voluntárias
frota
dinâmica
##mado
##ía
numb
encontrada
tributadas
interpretada
coletados
servindo
794
959
948
suficiência
reduzindo
conseqüências
extensiva
erradicação
sòmente
requeira
teres
##bero
desprovi
013
754
adquiridas
moderno
agrotóxicos
acionário
promulgada
##estrais
correlatas
rodrigo
típica
õ
pil
##únia
##onst
inúm
orga
decretar
promove
latif
profissões
alguém
exportadora
726
##́polis
considero
rpdc
duplicidade
tantos
aparece
totalizando
gdas
defe
##emas
desequil
preg
entendem
##tical
conjunt
credito
049
retrans
tempestividade
excessivo
##cendência
neutral
##onha
sere
escre
indefere
concretização
801
673
1945
gratuitamente
memora
observe
adjuntos
corporativa
coerente
incidindo
interoperabilidade
##41
reval
prata
financiados
ocupação
##́ricas
877
585
838
priorizar
procuradorias
reveste
preenchido
franco
interveni
trâmite
alfandeg
acadêmica
intermédio
bet
cejus
lis
##tti
national
##dec
##egislação
##agésimo
transportar
653
755
ocorrem
manifestado
incêndio
contempladas
##cetíveis
##econômica
adesão
##executivo
##pen
##ni
##tindo
##bene
dema
consórcios
##seca
eletivo
marcado
expi
infracional
admitiu
adicionalmente
devolver
europa
##pat
##ans
diesel
##vig
graph
semestralmente
conste
baseados
ambula
##rinha
818
domiciliada
inquéritos
economic
legitimação
mercantis
respondendo
gdp
distinguir
apenado
leinº
lembro
quil
perfor
##extra
909
086
olvid
defensiva
reclamação
àquelas
ingressados
socioeducativa
exequente
líqu
reduções
##inu
##ole
##feitas
transf
##ionais
##tariais
recebendo
058
obstar
concessionários
balanço
percebida
aporte
##combust
latifún
7m
##ale
contatos
plus
efetivas
agilidade
meninas
constitucionalismo
correições
negativas
excluídas
devolvida
raciocínio
almira
fib
##ori
##refer
##hou
##juris
##paulo
opro
movimenta
##cleos
##próp
economicamente
cated
abusivo
evasão
terá
informe
pesqueira
demandado
761
tipificado
prioritários
pleitear
pôrto
inúmeros
contou
possesso
sujeitam
filiais
767
surgir
contempor
lesões
##interrup
vislumbra
heter
listados
embratur
ressocial
##fís
##altera
desvincul
transvers
luci
comunica
851
revenda
razoáveis
argü
diplomáticos
inviabilizando
consegue
branca
auferida
convivência
aglom
chancelaria
##tique
processante
##nocs
meteor
habitante
isentas
recebem
ciências
##rinstitu
levadas
056
##étricas
fechada
derivado
sucumbenciais
matrículas
periódica
permaneceu
recreativo
caução
##modal
aqü
fô
fifa
##oo
##às
convoca
notariais
impunidade
ensa
##nsp
902
comprovadas
053
recinto
igre
idôneo
turísticos
##pidamente
cnt
doloso
##ulamento
descomp
##vidores
repl
né
imissão
mantenha
privação
cél
969
colocada
reparação
despachos
tá
##ágio
903
cep
cheque
nulidades
extinção
aceito
pactuadas
adjudicação
performan
##rn
##inadas
asc
all
##riza
##ológicos
811
morosidade
##presente
reafirmou
descober
##rizou
consciência
aludida
agregado
duplica
ressegu
disseminar
bél
leilo
apreciadas
dependem
conteúdos
distinto
consecutivas
##publicação
##dent
dono
paula
agil
declaratório
situa
asseguradas
alternativo
enviado
exonerados
núcleos
cce
uva
zoneamento
##ventes
deter
##atribuições
rapidamente
infraestruturas
importando
934
ilegais
052
generais
acolhido
adotarão
sedimentado
inseridos
encarregados
intensidade
https
prevalecerá
elencadas
difusos
apreciação
##dutor
agravados
deflete
apreciados
097
recolhida
alternativos
representativos
bancários
prosseguir
caderne
aritm
rom
rotas
negócios
adicionado
##regula
##ígios
carteiras
165º
idosa
avulso
ventilada
asseverou
dp
##ty
##ener
abati
##cola
representem
limitados
alegadas
832
amplitude
assumido
incompatíveis
nominalmente
tutelar
acondicionamento
exatidão
##gi
##uld
##ordem
753
mandamental
racionalização
tutelado
acreditados
##medida
telé
concomitantemente
gol
##rato
sour
##estação
extravio
instituído
info
roma
merecem
98º
788
condução
alienar
comércio
derecho
academia
profunda
fácil
sargentos
wor
##rb
##orig
##gm
##42
##erosa
##icados
tratou
neves
batista
##comissão
dúvidas
gradual
inadequado
##órgão
oficinas
cumpra
pretendentes
amorim
usucapião
rica
dopro
##itri
aresto
engan
espetá
incidência
estágios
instalar
revelado
amia
bastando
cadu
conseguir
ler
##dr
##heiros
##úlio
##endum
justiç
##ferimento
saída
afigura
importar
exigência
filha
967
obediência
protegidos
aprendizado
emissoras
litisconsor
farmacêuticos
##67
##quím
##ances
formalidade
causal
eua
imperios
creio
945
reiterando
transmitir
cinematográficas
sublinh
number
dnocs
##eso
trato
pelodecreto
##comit
case
solto
regulado
obrigatórios
875
773
##missos
trfs
salientar
amianto
ede
##cen
daí
anun
voc
realizará
determinam
definições
hajam
lac
capacitados
conclusões
955
tomador
manifestações
alcançando
postulando
sucumbente
colhidos
bairro
mexic
ct
pne
##çãos
##vant
tratadas
vertente
subscre
deixado
915
gerado
estimada
iniciadas
recicla
idosos
acreditado
coeficiente
lançamentos
lvii
##tina
##ht
ininterrup
##análise
deseja
##deos
##ensas
rob
guin
submete
781
913
biológica
íntegra
##ae
dans
extrato
discutidas
929
modificada
alienados
computadas
vitória
sw
tensão
cóp
propõe
maqu
acc
acaso
mediadores
capítulos
##juízo
desteartigo
faltar
garantam
tecnológica
901
834
926
especificada
empenhadas
secundário
empírica
imparcialidade
##diais
altamente
aument
trezentos
impedem
##guez
veiculação
parlamento
indenizatório
respaldo
5m
ibero
ric
carentes
##iber
verbal
garantidos
apreendido
845
exclusivas
##partes
precau
valorização
cdc
quesitos
hediondo
cna
ineg
##izações
interrup
destinação
diferenciados
n°s
licitantes
oneros
juízos
fornecerá
privilégio
independência
herança
incur
##erativa
contiver
publicações
apreendidas
humanidade
054
914
864
lond
lançamento
ccc
anfitri
avo
dit
##orrog
digo
##rasil
##íram
##portes
##mitente
causada
optantes
##regist
envolvida
088
colho
geração
palestra
sisp
caderno
videoconferência
bacharel
catedrá
fum
emblem
ares
portadoras
atributos
cacho
cartórios
autorais
menção
pesquisador
dizia
996
997
824
especificando
atingidas
emergenciais
museu
##planej
exaurimento
##grapho
bag
##̂nico
##vidade
rég
##instru
apela
##mites
requisitado
estruturado
##justiça
verificando
984
972
denominar
figuras
atravess
discriminados
##medidas
cumpram
intimação
partidária
##respectivos
tóp
##éns
##gov
##aba
aditivo
transferência
luis
africana
substituirá
optou
diferencia
interpretado
indúst
restaurativo
provisoriamente
aludindo
insubsistência
beneficente
##propria
performance
mídia
##hão
confor
conval
apól
percurso
##ponha
decretou
905
064
942
afetadas
suscitados
##autoridade
subtítulos
reaber
telégrafos
penhor
##ides
##uração
carece
tav
autorize
international
libéria
igua
936
enquadrado
fiscalizador
econômicas
consistentes
discussões
singulares
sofreu
esbarrando
##orum
exposição
resto
unificação
isento
guias
protocolação
engend
malha
biocombust
perfis
fôrça
amostragem
introduzido
##elli
cônjuges
prolatado
contingente
padecendo
salientou
##ministério
prontamente
##izam
poster
vigência
sanitários
existam
revisar
vigora
059
992
757
bruno
##cabou
ajuizadas
símbolo
##stavo
esclarece
desproporcionalidade
ect
##bos
##ônea
esca
uns
##pondo
estruturação
patern
674
679
percep
licitação
punir
depositadas
subjetivas
reclamações
concordo
exemplifica
farmacêutica
vito
dedi
dedes
trab
fax
deflagra
transito
elevados
locatário
corredor
culturas
usada
assinaturas
##obs
uniformes
transcrito
intérprete
6a
##avelmente
prático
##grafias
constri
patentes
aquisitivo
consumado
consolidou
espaciais
populacional
jaz
desloca
metropolitanas
varejo
antidoping
zpe
adult
transitado
devemos
individualizada
denominadas
constato
ligado
conclusos
mister
invocar
recair
##basti
oitavo
arcabou
autorizam
registre
##elhamento
homenagem
993
denomina
habilitadas
recolhimentos
educativo
associações
cometida
crack
paralisação
ocidental
##cruz
evoca
vs
##zia
##izade
poderexecutivo
gramas
tér
trabalham
subsiste
tiro
antt
863
831
reajustados
superlo
automotor
sumária
atenuante
cláusula
descreve
delin
receio
submetendo
885
instalado
978
reflexo
cessar
guardar
veicular
cadastrados
176º
frequentes
tantas
3m
epro
##pua
##mc
##çando
doença
##undo
##exig
indiciado
solen
inomin
cobrir
estágio
lançados
irretra
##101
##venil
procès
burocra
##lp
retific
port
postas
mark
medo
escolhas
886
estabelecerão
aumentou
suspensas
bilhe
imobilizado
disciplinado
ofensas
##parágrafo
voluntariamente
gonçalves
ótica
##mular
##ídios
##ciantes
dialo
desvios
atíp
manuais
servirá
informatizado
violar
##êncio
china
informaram
requerendo
analisou
ipca
variáveis
contextos
fito
nãos
##gir
##ley
escas
intermunici
alar
##essoal
##ulato
participarão
substitutiva
alegam
sanidade
806
celetista
073
077
861
separados
comunicadas
disciplinará
emanadas
leilões
ostens
##onal
##tivista
despre
tradução
adido
rata
inflação
organicidade
permanecendo
mensagens
963
urna
953
949
controladora
##́gio
naqueles
vínculos
anta
##onso
mata
espólio
gustavo
levará
957
828
frações
gerência
hipossu
versam
seccional
dirimida
súmula
ni
sir
##p1
##52
##vores
##ciá
##arts
cama
mediação
metal
##rício
mill
983
912
figuei
verificação
##oficial
vislumbro
transação
falsificação
manipulação
confidencialidade
hipoteca
##ificou
##eráveis
seres
intensa
##termos
criminológico
irma
submetê
instalações
921
consolidados
significativas
ajustar
parcelamentos
mínimos
degrada
olímpico
teresina
mario
compõe
023
tabel
ncm
surpre
obedecidas
salvaguardas
suspeita
6m
##cje
##ígn
cár
caputdeste
adimp
revelia
assessores
frequente
complemento
##aprov
epis
rubrica
motorista
mútu
ae
ore
tentado
exas
parto
atitude
interinstitu
conhecendo
custear
depositante
tramitam
arbitr
similitude
109º
antidu
##distrito
##idência
##ish
selos
incorrer
arb
reduzidos
vantaj
deficiências
peculato
estocagem
174º
característica
entrarão
aprofundado
homog
8m
over
ppi
##nw
##media
dotada
##icom
atitudes
consume
##iga
repisa
cuid
manuf
realize
instruída
##ches
sanções
comprovem
comprovados
anti
084
conversa
obedecendo
comparado
comandantes
exejud
edo
pul
vivo
##zi
##zinho
detém
confec
##dicional
obtenção
job
compartilhada
majoritária
codificação
litisconsórcio
equivocada
iluminação
citar
##af
leigos
##até
fazia
participem
assembléias
aferida
bibliotecas
freqüência
pion
sente
tradição
cari
##cência
moura
normatizar
tributada
##comer
proferiu
881
879
inap
compensado
enumerados
mesorregião
figueiredo
bri
vindo
consigo
aditivos
11m
raça
sentenciado
lato
participam
profissão
reguladas
envolva
beneficiadas
honras
895
968
facilmente
dispensadas
acontecer
idênticos
constituirão
perderá
acredita
vídeo
imprescindibilidade
latifúndio
cpe
##ew
##mu
inteiros
simplificação
057
891
equivaler
ulterior
count
inserir
aparelhado
convocatório
##gráficas
##econômico
distante
desídia
##atária
contraprestação
compil
##portação
##chas
existirem
impugnados
convencional
próximos
memorando
2m
eco
tendem
##́lia
##xt
carn
executor
confronta
eluci
##ritário
negociar
demonstrados
irra
expressas
liminares
873
testemunho
aperfeiçoar
107º
167°
dnl
effec
##gráficos
escuta
encamp
gisi
descompasso
cíveis
melo
##ange
##ciones
topo
julgue
aplique
##ficiente
centésimos
##ages
contribuições
comunitária
apartir
##obrig
impressos
difundir
lagoa
reciclagem
##zio
##69
pertur
unificadas
saud
elaborará
##operação
##̂nios
092
problemática
colaboração
sucessivos
estipuladas
idênticas
adiantamento
hermenêutica
adimplemento
cx
dora
esva
relativ
claros
##prisão
histórica
##óricos
dejaneiro
prorrogações
##alien
pint
div
instado
dúvida
888
081
892
questiona
aconteceu
percebido
percebendo
pouca
adversa
rotula
esquema
retornar
gestante
múltiplos
anteprojeto
h2
paragrapho
##ivers
disputas
empregadas
vedadas
095
outorgas
juntar
sétimo
psicotr
refinan
veículo
felipe
renato
4m
kv
decomp
##alto
trago
reput
unido
sistemática
trts
torne
gerada
reforçar
lastro
protegida
##empresas
frequência
vislumbrar
reintegração
periódicos
securi
antidumping
fct
exposta
integrará
techn
041
867
gerentes
afetação
manejados
comparada
chamar
sentenciante
meia
ste
redimens
precí
automação
realizarem
socialmente
conseguiu
qualificadas
gama
odontologia
adentrar
vereadores
farmácia
##trio
doar
cafe
sentimentos
rod
##inamentos
protetiva
939
beneficiada
918
extern
iniciados
estipulados
aceleração
induzir
descrever
sousa
##defin
anul
interêsse
mandará
tratava
realizando
##assistência
respondem
projeção
registrou
regulados
solicitação
bojo
951
divulgados
gerou
seguradoras
derrad
pleiteado
posicion
coerci
gozarão
chamamento
##53
##oro
doados
alb
disposta
integrais
condiz
contribuem
contributiva
magistrada
espanha
062
alienação
prorrogável
começa
estratégicas
certidão
##josé
##íbrio
tríplice
dadas
wa
##gre
detida
prestando
interfa
casal
##encias
100°
##operações
federado
geor
fábrica
significativos
eminentes
remete
camex
palest
turística
usa
##geral
##inidade
incorr
##utra
lagoas
identif
psíqu
ameaças
agravamento
fono
##êa
deterio
docaput
sebasti
estada
##ize
prêm
gravação
##técn
indique
anotações
opções
reflexão
encontravam
##judicial
prescrito
terminativas
prevalência
acordadas
sugestões
automotivos
acumulados
tarde
coincidente
genérico
##lit
##89
##wer
defeito
##ritos
pró
ouvidas
##diu
##terial
suscetível
fundamentação
servem
045
facilidade
disponibilizadas
opiniões
##interess
modificativos
consubstanciado
contrariar
assemelhados
vocáb
##ést
deus
##riação
notório
transcurso
estabeleça
realizem
cabos
cautelas
numeração
bloque
judice
belém
vicente
hostilizada
reconstrução
ebc
pce
pdf
tim
ára
atentado
constituam
decida
agregação
luís
assegurará
076
aparentemente
##book
acessos
rgps
##virtu
##estabelecidos
##poderão
fortemente
incerteza
antitruste
anto
toca
tomou
plu
informatizados
polícias
licenciado
consubstancia
aprofundamento
enfatiza
subchefia
##cismo
irretratável
bro
hip
pato
margens
instituidores
##valiação
violento
condenar
currí
regramento
093
##parti
descritivo
firmas
antecipadamente
aeronáutico
ób
impróprio
pronaf
f4
##oci
##lh
deout
no2
##tivação
contando
unit
viu
justifiquem
peças
intér
falou
vaci
sanada
expedientes
866
delegadas
cadastradas
limitações
coligação
expiração
##unidades
portas
objetivamente
violou
obrigar
##ploy
##̂ndia
afetam
justificativas
reparar
uniformização
cessionário
brito
gt
##frica
##iá
##lei
cominada
desvirtu
relax
aflu
expendidas
importe
médicas
relaciona
verifique
demandados
vinculantes
habilitar
##parte
remetido
amigável
obstáculos
##els
trav
comprimento
##ferida
##valores
ocupam
flutu
remuneradas
portuários
atingiu
questionamentos
rápida
antidrogas
tavares
##fos
##ctos
##elidade
repat
embarg
assegure
desafi
afetado
professora
discriminadas
psicossocial
avent
##cimo
repou
production
##municí
aderi
impetrada
desapropria
restrição
monop
punitivo
quinz
logrou
economias
fiduciária
reivindica
##ódro
doador
noite
previu
##ceb
pejus
referendum
##colas
passe
047
922
disser
credenciadas
cedente
cmc
compatibilizar
árbitros
repouso
8a
lí
##put
##ânde
conab
inib
excele
diritto
intimidade
fortu
medir
mesas
##ipu
25o
condenações
analy
943
corrêa
disponibilização
domiciliadas
franque
detalhadas
cadastrais
avanç
garimp
##previstas
pobres
quinhentos
egrégio
dilma
ein
odecreto
tb
##ary
##mant
##olímp
entron
##mex
cuia
medindo
legí
participativa
discuti
adição
investigados
subscrever
flora
decididas
tribunaux
procedimental
motivação
iuris
temperatura
source
psicotrópicas
zel
revolu
##itio
confe
nativa
presume
reputação
##itativa
importadora
##centro
##001
firmaram
most
emitirá
correr
##seguintes
##ofono
ofensivo
invocada
##desaf
rd
vendidos
##nior
jún
##teg
alber
envid
ética
optante
inocorrente
continência
abrangência
credenciada
júnior
consubstanciada
##°0000
adimplência
there
manuseio
##planejamento
ment
mass
sós
nostermos
argui
guara
banda
frontal
imprescindíveis
litígio
rousseff
aqüicultura
excelência
hol
provoca
tradução
pavil
especialidades
##ione
exprop
participado
##jovem
ordinária
975
onerosa
caracterizam
quintos
comissionada
explicitadas
serventu
permissões
tradicionalmente
lxviii
dinâm
hediondos
décadas
sargento
porcentagem
riacho
vincendas
vôo
paternidade
júnior
lógico
pinheiro
acl
contrabando
neo
##quisa
servido
afix
adiamento
calib
caberia
selecionadas
urgentes
autenticadas
estranha
intercamb
cotidiano
9m
dotado
##und
viena
subdi
##rgula
manuse
competindo
indefin
falando
concederá
azul
intermedia
preceitu
punição
trazendo
ordenamentos
incidirão
##quadramento
nít
provida
extrair
##mbitos
cumpriu
rodagem
enquadrar
colocando
domiciliado
normalidade
nominativas
distinção
sobreveio
cjf
expropria
##íodo
naforma
presídios
adis
unico
abol
ratificações
jurista
clim
saltum
passaporte
amizade
aceitos
comparação
núcleos
comprobatórios
##prazo
coma
exequ
dese
prepostos
enap
cláss
pasta
expressar
estatu
fundamentou
consolidadas
detenha
terceirização
societário
fiquei
kw
##lândia
##éticas
parecem
##deres
prevendo
antrop
reitero
antecipar
opiniões
corregedorias
hidrovia
poucas
congênere
excetuados
peculiares
clube
árbitro
exijam
riqueza
cia
##afe
refe
proces
##tário
marcha
lep
informal
desacerto
identificando
decididos
agroindust
precária
alfânde
drenagem
explicitamente
endoss
sarney
língua
antônio
its
tí
vive
##tto
##87
demit
exposições
corumb
contradito
segreg
violações
reformatio
demandantes
dirigidas
manterão
depositar
seguradora
##ólica
tempestivo
perigosas
sintonia
funcciona
ditam
nação
paraolímp
##gram
apara
contraídas
vetado
fazendas
desproveu
ilha
lançado
lavrar
##ânicas
adaptar
quese
agressão
ppa
rent
dotrabalho
quorum
maci
agron
insol
estag
##país
reconhecem
##tempor
ajustamento
congest
editalícias
tivemos
automotivo
plurianuais
inovações
quilombol
correspondendo
doravante
##orem
legado
##terá
autoral
operações
26o
vinha
xxix
televis
emitente
autenticada
injustificada
hierarqu
##atureza
escalas
hum
##gido
commer
contrárias
intenção
##ross
cast
castr
mediana
bemcomo
negando
resultando
recebedor
chegam
afetará
receberão
inscrição
examinou
domingos
macrodesaf
análogos
conceitual
pna
##wa
##erância
##ex1o
recebo
provável
conferidos
almej
gabriel
encaminhamentos
hospedagem
omissos
##iará
conde
notória
suj
##ater
cumul
moedas
##feridos
fob
elétrica
recebam
nomeações
guan
concluindo
silêncio
deliberará
homologados
entrevistado
conseqüente
pedagógico
favorável
controvérsia
manufatura
bios
##°15
douta
severa
commun
projovem
publico
negativamente
dumping
verificados
advogada
domiciliados
circular
prolif
ratificar
imigração
7a
trin
conterão
interdisciplinar
##ficantes
correi
interessa
distribuídas
capacitar
cheguei
ferrovia
aproveitados
idôneos
denunciados
abusiva
ementada
sj
comu
alei
verbo
resultem
criminosos
ataque
cima
refu
ocorrências
analise
fundamentadas
enquadrem
essência
seccionais
sumular
gêneros
sublinha
dpe
##sw
##ka
devo
emissão
valia
extraordinário
referendo
inspi
insatis
rog
autárqu
fundamentadamente
implicam
ônibus
válv
##perten
paralela
petrobras
trimestralmente
##instituições
permissionárias
encoraja
entroncamento
##ócio
pref
interval
meus
importará
fale
avaliadas
normatização
receberam
promoverão
cobradas
chegando
abreu
remaneja
historicamente
notificada
influenciar
##count
vigilância
ditames
ast
##ministro
##ulam
##eiam
atenta
paco
paris
dispostas
empreitada
hav
recorre
ciente
humanitária
amigo
indiretos
últimas
vence
socioeconôm
caminhos
semanal
presumida
orçamentário
##estabelecidas
videofono
comitês
vínculos
fulcro
exija
cirurgia
margin
biocombustíveis
##far
##cci
devel
doenças
##itoral
executória
abrig
##mbo
correição
sanção
humanitário
exclusão
filiados
aplicarão
cadastral
sonegação
dedut
próxima
tendência
clubes
repactuação
##mulas
dativo
##istêm
divo
críticas
operam
chancel
judiciários
abrangido
derivadas
indicativo
fôrças
compulso
periódicas
eleger
maurício
dicção
jac
##pass
##ºda
##veni
##°0
##ast
##enão
estendida
##ilhas
##cionários
atend
##atinga
conhecidas
pedra
definindo
jurisdicionado
impugnou
concretização
expedição
selecionar
molést
imóvel
intermediação
sítios
multiplicação
línguas
básicos
convivência
ron
van
##ptura
##àticamente
##ries
##erando
##tivada
carto
respeita
inscrever
29000
trabalhando
tributável
estatura
baseia
companheira
aimp
aparente
possibilitem
ameaçado
harm
qualificadora
imobiliários
dobrasil
premiada
lacuna
conjuntura
antaq
1m
gro
##fesa
##iento
##lógica
##bação
atentar
agrade
temá
confisco
suprimentos
suscetíveis
exigíveis
concretamente
comprovou
assuma
residência
##atória
dificultar
borges
blocos
nestas
impressão
degradação
inúmeras
rastre
raras
satélite
arcabouço
dacon
direcionadas
##conced
##icil
##rín
saj
estruturados
irã
principi
cân
orçamentárias
devolvidos
##governo
elencados
despach
alerta
módulos
típ
##pp
##ús
pontes
term
atacad
judiciárias
enviada
exemplar
puderem
plausibilidade
##ween
deslocamentos
aman
bit
##erária
##alt
##mato
votou
violências
acomo
relevo
##conselh
satisfeitas
efetivado
considerem
majorar
alinhada
guimara
develop
rus
reorgan
extras
##dibilidade
##iago
represente
medeiros
previc
extraídos
marcada
##itações
infratores
corretivas
renum
cea
litro
##desp
prestarão
desafia
efêm
cronogramas
herdeiro
fluviais
convênio
alfabetização
diferenciação
between
##ded
coz
coibir
##torias
paraa
interferir
cnmp
##ritório
atuará
utilizem
editou
desprovida
converg
entrância
eletronicamente
afetas
tropa
testemunhal
levantar
agravar
devolutas
súmulas
possessórias
but
mel
##uos
coelho
dodisposto
apres
regress
tradição
constituições
indicou
##ubstitu
famil
filial
atrair
identificador
psiqu
horário
itaipu
##perman
creditamento
desconformidade
alinhado
turístico
redistribuídos
exercicio
aritmética
ka
ríg
wil
compel
desenvolveu
permitidas
fracionamento
parceiro
mandatário
concilia
proibir
proibição
consigno
arrend
repetir
tarifárias
esportivas
múltipl
remeterá
sobrevivência
igreja
6ª
dad
sanc
##fn
##hamento
##òriamente
##individ
podia
cax
##quisição
legislativos
articulada
controladores
homologar
investidor
ultrapassa
ferrovias
conteúdos
supraci
conservar
##fl
##aridade
##entor
noção
contá
account
intervenções
##atar
comunicações
sinto
solt
editados
vaca
requerentes
tecnológicas
produtoras
atingindo
pretendem
detentos
passageiro
economicidade
cristina
reporta
básica
alusivo
olímpicos
carbono
limp
##cade
reorganização
voo
salários
##control
suspend
consultores
conselhonacional
fundadas
marinho
retira
notícia
##administrativa
máxima
cláusulas
liquidante
exasperação
tbcn
intervalos
prox
##emn
##egese
##pons
vêm
##ínios
avaliada
mantenham
curva
gaso
afirmação
formalizar
telefônico
biotecnologia
acarretem
cassada
introduzida
##empresa
domésticos
quesito
majoro
dogma
##conhecimento
vende
##77
emiss
##lementos
mediador
##talidade
prédios
credibilidade
justificando
##enciam
arrecadado
preenchidas
conferindo
aproximado
##www
introduzir
asseverado
feminicídio
séries
provocação
desocup
interromper
obtiver
averigu
sucintamente
rótulo
término
guimarães
doconselho
##unha
suí
##izmente
##ituras
consec
transfere
infrin
operando
##tizadas
xxvii
deixaram
acrescidas
928
instauração
inconformado
legitimados
##uperv
déficit
inviolabilidade
caducidade
palestras
cano
##sp
##ani
consuma
compl
pediu
sistematização
definiu
##êsses
atuou
diariamente
domínio
congel
naturalmente
pertencem
pátria
divisas
observações
listagem
convencionais
cruzamento
coerência
transcrita
alheio
veterinária
##jurídica
acadêmico
líbia
líquida
market
##ities
descan
##aticamente
destalei
cumulação
presidir
##ráfica
substituí
##ube
fundamentados
aeródro
ajusta
invalidade
peculiaridade
consciente
mexicanos
jobim
citando
pcc
spe
ub
##all
exten
mapas
pape
pendência
pedras
provisórios
caber
negócio
##obriga
telefones
automàticamente
incrementar
compreenderá
coligada
pudessem
ecológico
congressos
horizontal
intermunicipal
opor
tutor
venho
##mamento
##quel
intent
constitua
legenda
defeso
prender
afim
acome
atribuindo
resultaram
utilizou
irpj
distribuidores
comercializar
completado
pronunciou
irrevers
democrática
incapazes
ocupações
energético
perpetu
orgânica
castrense
vál
vêm
##penal
##naldo
##tenha
##gam
rebate
##ident
conc
regidas
deciso
##ráfico
projeções
restrições
continuação
controlado
##izadora
vencer
lançadas
versem
formalizou
verdadeiros
semanas
transparente
liberado
tentativas
prédio
auferido
omissão
renunciar
entendemos
##cautelar
cú
ên
##ren
##cita
##elétrica
##cutir
aug
processadas
age
transnacional
estruturada
coletar
contrô
946
liquidado
satisfeito
químico
high
convênios
evidenciando
ccl
##âneas
deadministração
resistência
##existência
lúcia
promoveu
editará
bob
procuradora
revesti
ensejou
acabam
armazéns
tivessem
lesão
aprender
costuma
flexibilidade
granel
escravo
sebastião
dade
##tível
daprisão
artística
diárias
preclus
prado
referend
empresários
importada
limitadas
distritofederal
requeridos
concluídos
tranqu
##interesse
esperado
receptação
##financeira
desincumb
coeficientes
monopólio
fne
mei
deestado
detrans
nout
receba
pagará
locador
comerciantes
períodos
ficaram
##guês
remoto
positivas
liberados
sindicância
negociação
ostenta
pistor
duplicata
gin
gravam
autorizou
transcendência
necessitam
infel
sai
indivis
moradores
juízos
cancelada
multimodal
sediada
estipulada
divergências
barragem
interamericano
consensuais
mutirões
##observ
rotulagem
frança
feiras
sb
ofícios
reconheça
aplicável
##imamente
vedações
##assegu
deixará
university
outorgado
extint
colat
computada
efetivadas
loterias
avanço
130º
plantão
coligadas
inadimplentes
década
têx
nono
rdc
áfrica
demas
employ
##colh
sau
magalh
periciais
expressivo
empregar
populares
configurando
101º
melhoramento
satisfaçam
flexibilização
inválido
transtornos
divórcio
magalhães
ses
##serviços
##din
##stes
realizaram
empreende
chu
possuidores
ofertas
armador
calcular
exato
remansos
instaurados
distritos
decorra
177º
exaustivamente
imagin
convencido
works
abatimento
sujeição
egresso
##sis
##lmente
##quando
contran
##correntes
destacada
devedora
##ciosa
federativas
incorpor
##újo
desportivo
homologa
estipulação
romanístico
mitigar
desconsideração
testamento
exação
##able
atrel
##ega
abra
indd
lotação
confusão
informatização
assinam
impedindo
acredito
inevit
detento
absolut
fuz
harmonização
fidelidade
cmn
especificidade
desdobra
curriculares
tópico
célere
prêmio
mala
##ulso
##ulgamento
entendi
sistematizar
redutor
cessará
acessível
corrigidos
estipular
araújo
incabíveis
psicológica
daniel
alheia
##respectivas
imperativo
instrutores
fiduciário
frisar
##zentas
##̂mbio
##̀re
reurb
##reia
##olici
##izem
##mbos
competirá
vertical
acont
cnen
lacust
participarem
humb
filme
digamos
encaminhando
ofertados
percebidas
provisórias
autuação
secunda
didático
círculos
contrôle
êle
##num
##quais
foros
##caju
apreciou
##egurança
sujeitando
solicitei
menciono
litígios
entradas
educativas
##cínio
restituir
claras
softwares
ninguém
colheita
celebraram
remansosa
cá
##ímetros
sever
aseguinte
mãos
presídio
##ensível
##elagem
profissões
estruturar
vago
concluso
indeniza
tempore
pretendeu
diversamente
automação
explicitar
comunicados
satisfaz
vitimização
seminários
vizinhos
belém
catedrático
brilha
##membros
##vência
cotação
carca
aforamento
atuantes
mantiver
deixarem
adquiri
infecção
conciliar
depositada
exacer
110º
decorreu
paralelo
edificação
##indúst
detecção
difusão
nicol
humberto
rit
will
##dera
##mpe
##79
deex
comutação
extor
entrado
alon
##logas
determinante
destinem
siorg
incluídos
incorridos
##iciaes
português
irregulares
preparados
mich
ideais
logístico
religiosas
##tizações
puramente
rompimento
fraudes
engendrado
cde
lixo
ocu
peix
seguese
##pretes
indício
afonso
##cipes
anote
##produção
expressando
depositária
começar
fabricados
ceder
concordam
anistiado
declaro
fonseca
araguaia
##m²
inconstitucionais
trade
may
present
temáticas
negro
ocorrerem
escritos
disponibilizada
uniformidade
acessíveis
concordar
idênt
108º
tjmsp
repetitivo
inidoneidade
cachoeira
ênfase
copa
provimentos
dess
precip
prestem
##iou
admito
presidenciais
confisc
fixas
##rimir
geradora
privativos
modificados
funcionalidades
labor
esperar
narrados
catalo
largo
combatentes
gestoras
eliminação
conclama
mário
pca
##êle
##eses
##espa
##ulio
exegese
possess
empí
gozar
permanência
federações
sustentáveis
geram
omnes
profundidade
##idadede
otimizar
rápida
desmatamento
descoberta
brilhante
vão
##inda
atl
dispo
##eletr
fotos
indes
exigências
visibilidade
hoc
denota
analisa
manifestada
educativa
prorrogados
aprofundar
rpv
costeira
subtítulo
naladi
intergovernamental
indústria
superlotação
cela
irá
sout
repito
##ácio
metais
informais
equa
haia
usualmente
regulam
diretório
comerciante
prioriz
aceite
comparativo
guerre
estudant
sofrendo
amparados
fóruns
resumida
encomendas
circuitos
obstáculos
telecomunicação
##claração
comumente
dores
hemo
##oa
##úne
ataques
recha
nomeação
julgadora
reapar
andar
acessória
oriunda
confirmado
presumir
acrescentar
dedicado
excetuadas
habitualmente
encoraj
diversificação
cibernética
sobressal
híg
jato
deforma
##ely
infere
empo
queb
exim
##gueira
escrever
##fet
##ceita
gravid
exercidos
lubri
##tilha
confess
garantidores
ambientalmente
disponham
daquilo
ilíci
##álise
bezer
cruzados
integrem
abrangem
##prat
oceano
desobed
##correspondente
cultivar
##garantia
qaeda
##86
##yen
pot
funasa
mandar
adote
convés
refrig
solicitou
comprova
amara
provin
erga
radi
potencializar
their
##dispens
modificativo
lembra
designação
prestig
latro
##tárias
##ble
arru
exmo
diários
##ibada
##mann
transitar
##arágrafo
inspira
##inações
opõe
sabido
marinhos
professôres
cresceu
dispensando
potencialidade
candidatura
conduzida
divididos
enviadas
absolutos
ferroviários
compatibilização
plausível
preconceito
caxias
gravames
mre
tria
##enes
##itá
pronta
aná
##ficar
aumentando
endem
fixos
condô
comercializados
assistido
mortes
enfra
imobiliárias
racionalização
milhares
petrol
encarregada
impression
invocação
típico
escalon
advindos
inquirição
guanab
cda
jap
wada
##rega
emcon
##análise
atendem
relata
relation
destil
##nomia
simp
libertatis
passada
consultiva
excelso
priorização
acessar
reiterar
regulamentadas
assumiu
avanço
divergente
orçamentários
acrescentado
tendente
itinerante
tópico
afluente
pon
incurs
adene
transportadora
evidências
excederá
colaborador
resolvidos
franquia
amparada
cédulas
sider
floriano
vencedora
guanabara
tida
##drica
##cções
##izador
desvi
anor
expro
representadas
trocar
jurisprudenciais
ultrapassem
175º
##crim1o
colhidas
veterinário
sip
velha
daa
esque
intervent
instruídos
pescado
deveras
revisional
orientado
continuo
reunidos
remuneratórios
ajustada
querel
guardas
atingimento
than
##°45
ostent
rediscutir
acadêmica
predominantemente
desembarque
psíquica
fortuito
quilombolas
oposto
scho
##vê
##vista
suco
deset
alí
aplico
aprovará
compensações
armadores
óbvio
gravosa
formalizados
instaurada
armamento
contínua
bnmp
sublinhando
indesej
9a
dgov
fona
mise
##imental
##lor
semo
##vier
##cedo
alçada
abon
considerável
constem
infun
éta
##iosa
expulsão
condenando
internacionalmente
fundamentam
escritas
originários
indeferindo
iphan
armado
conciliador
abrangida
personalidades
vulneráveis
endosso
fertilizantes
serefere
inominado
##pan
desuman
##mobil
fundações
##né
##ington
refis
finanças
reduziu
preparado
urbanismo
malan
superação
##federativa
adquirentes
pesqueiros
fiocruz
##hipótese
pregão
ah
##sc
##º15
repos
revol
##requis
arres
##cionista
direciona
medição
abr
cnd
proposição
pátrio
1935
hipotec
precatórias
tanques
esportes
patronal
espetáculos
##comercial
proximidade
##̂neo
##civil
pora
consu
marfim
##ologias
lavo
liberais
inclua
##internacional
168°
equilíbrio
inventari
subtração
imprópria
invasão
justiças
ceajud
ius
##mem
##gono
##°1
##ón
adja
tou
vieram
finep
noronha
trens
mere
char
passaportes
permitidos
virtuais
preventivamente
descritiva
ín
etnia
resolvidas
ingressos
emanada
suportar
interceptações
beneficentes
esposa
almirante
atlânt
jr
##lim
##âmbito
detração
##docu
procel
##graph
prema
transfer
##ômica
##bilidades
permanecido
explícita
ocorresse
assinala
reflexões
##étrico
fracionário
afetem
irretro
progressividade
derecursos
republicado
expressões
##normas
pretensão
confiabilidade
cópia
##redi
limitação
correção
cultivo
espi
passados
encerrar
enfrentada
satisfatória
pensionista
sumário
análoga
parentesco
reinserção
prudente
consignações
desapropriações
bezerra
dore
##ved
sopes
constituições
##minas
##neidade
utilize
adquire
divisor
graduados
complexas
enfrentadas
ideológica
tjmmg
disseminação
##fiscal
usufruir
concordância
dezessete
expropri
lavoura
dic
g5
##dido
reclus
incrimin
##tá
##ribe
restantes
##conta
alum
posições
##ificando
insígn
imposição
coordenará
##ticou
estatísticos
xxviii
##qüente
ilibada
pretenda
terão
tjmrs
retroatividade
irresignada
insistiu
lados
one
##obre
dotados
exibir
##peças
intit
geraldo
##inaria
garanta
anota
alegados
##ificações
usadas
andré
tornem
alienações
##necessárias
conduzido
tomarão
gdat
decres
##previstos
consagrado
respondeu
pacificada
começou
dólares
reabertura
moléstia
extenso
nicolau
tira
ut
##ld
##bitos
##ory
férias
##agro
definitivas
quadrim
variam
atualidade
universitários
exercerão
amazônica
aparecem
claus
improrrog
incumbir
prescritas
##educação
somado
sector
habitualidade
tripulantes
confederações
##ríamos
cronológica
desprez
##pertencentes
desetembro
##p2
##ning
##bela
##ker
detenção
congo
##eil
contenção
##att
caiu
feriados
cabem
##0000
##carb
prisões
justificadas
ampliado
excedam
detalhar
sobrestado
agregados
bagagens
##energia
mútuo
nw
##ben
dedesenvolvimento
##informações
##elle
dila
executoras
##culp
perícias
proprieta
excluídos
sucessor
veiculados
##dfm
##diretor
##especi
recipientes
gravosos
índios
acentuada
engajamento
alistamento
bélico
apólice
irretroatividade
rê
##the
##1º
desistir
##atòriamente
cuba
vocação
##manda
constando
exper
cirúrg
proporções
financiadas
figures
precisão
potencialidades
entorno
ingredi
ultrapassado
avulsos
controvertida
atravessando
gravidez
eo
vesti
##táveis
dete
##entação
quaes
seda
prot
##cionou
desua
tratos
repress
serviu
loco
secreto
pesem
promova
violando
merecer
##rity
##anacional
##íss
inspetores
irrevog
inscrições
prevalec
prevalecendo
168º
monocráticas
suprimir
denúncias
carregamento
intencional
lealdade
incursionamento
aro
##pora
##ier
##dutores
##crédito
##vente
##80
cora
##ficado
##exterior
111o
decisórios
financi
médica
desacompanh
68º
produtora
encaminharão
venia
##comunicação
saberes
balcão
##funções
metál
plantio
orgânico
têrmo
esportiva
tendentes
artesanal
imaginar
officiaes
terapêut
fibras
rentabilidade
cb
pensa
sín
##nios
##ach
##vembro
##rist
conama
natos
##usão
##viol
acom
dispa
implementos
interca
cato
under
subter
subestação
chil
polígono
daqui
1942
receberem
alienante
supremacia
alojamento
preferência
##potismo
arranjo
extensa
helena
accôrdo
endemias
laran
sá
##dida
##76
rei
##mentadas
estendido
##resul
anim
##force
##our
marcação
planilha
saf
novação
convic
apoiada
disper
tirar
colocadas
dissol
progressivamente
reservadas
recicl
alcançados
preconiza
ponderações
alimentícios
emendado
culposo
coaduna
##cais
##ói
##envol
noinciso
##eme
##utenção
inteira
##ión
##cês
orto
assala
raio
clos
centa
proibidos
intermediária
círculo
interinstitucional
ejud
nalei
##line
##cts
somos
assass
units
##ible
##enciador
roda
definitivos
##procu
inovar
carreado
consulado
articulando
99º
produzam
err
caracteres
retroag
concorrencial
##integrantes
avaliações
algodão
inventaria
fóruns
sigiloso
prejuízos
caderneta
incursão
reaparelhamento
sobressalentes
vinhos
##iço
##tade
##gais
diâ
desclass
discursos
formam
semestral
sentenciados
0006
chance
##aremos
divulgará
colocou
gasol
digitalização
##públicos
procedimentais
reenquadramento
cejusc
a1
cí
cif
darão
dutra
erig
lam
emque
##isti
some
##fato
deixe
exportados
atenderá
creditadas
injusto
sisg
comprobatório
ambulatorial
dti
fér
grou
tw
vidas
##p1o
prome
##sobre
parna
preex
1916
##ícito
desenvolvendo
desenvolvem
mundiais
empresária
operada
##pac
cnext
requisições
how
impedidos
##trechos
exercerem
ampliada
1947
fichas
previsões
deliberação
graduado
biológicos
implicações
isoladas
aferido
absolvido
inseridas
insignifica
##direitos
obrigatória
aperfeiçoar
omc
implicando
gravosas
minorit
##circun
módulo
estabilização
bagat
arbitrária
descanso
pc
velh
doce
##enário
preposto
##modo
pá
seguidos
##seis
valec
instituidor
minimamente
baseou
indifer
treinamentos
diferenciadas
diagrama
inovado
honora
digna
examina
propicia
realo
naquilo
soberano
divergiu
166º
mantém
obstacul
máquina
frase
interface
hiper
relaxamento
confecção
intercâmbio
##hão
##rian
desf
pavi
necessitar
merc
mantene
alterando
##andra
outorgar
ict
renovado
remédios
tipificados
provento
deprocesso
insubsistente
contínuo
##iciliar
infelizmente
fmm
ét
##bito
##vão
##ívio
##itários
sude
##egócio
minhas
empreendedor
falência
bacen
##processo
cés
bot
sustento
eletrônicas
been
incêndios
oministério
gestantes
exordial
lacunas
aproximação
##orçamentária
acusação
subscrevem
ôn
diria
##ídu
administradas
sentidos
formados
municip
solicitando
telegrama
dágua
prisma
##escência
haveres
divulgadas
facultativa
boliva
numeros
enfrentados
tanque
madera
##cendentes
telecomunicações
impõe
precípua
fuzil
severo
tho
defeitos
intenso
subdivid
##terra
leon
##ítro
convém
visitantes
relacionar
##ronteiri
afetada
abrangerá
deduziu
telefo
intermediárias
##responsabilidade
alternadamente
##trizes
enxer
árabe
câncer
##uel
##úrio
daria
ous
sucurs
also
julgadores
habit
integrando
recém
##compe
ressalvando
calor
services
denovembro
realidades
inspetor
separada
cláss
1932
integre
reafirmar
##estabelecido
132º
feliz
acreditar
alcoólica
césar
mentais
##evid
##últi
##tiver
asdisposições
algem
subven
insumo
observadores
infração
subsídios
##́scimo
converteu
depósito
satisfeitos
remidos
desportivos
cadeiras
inexistência
imprescri
autônomas
qualificadoras
edifícios
rondon
acadêmico
galvão
analítico
efêmero
##pagem
##mando
compostas
##tável
estendendo
portá
soja
elec
negros
1ode
causando
exclusivos
orais
conceber
correndo
fiscalizadora
irrecorr
condicionantes
descabida
reformando
frutos
131º
multiplicidade
precisamos
aluguéis
aparecida
atestar
##imposto
aclara
school
giro
rms
stra
##denciamento
##encar
##enciou
sequência
##istão
##edido
##lamento
resídu
unificação
subdel
fixação
falida
analf
cheques
residências
parcelados
perícia
tornarem
conferiu
tramitaram
remetida
logística
configuraria
##cionaes
patrono
ciclos
mantega
consciência
rejulgamento
##ianas
detentora
xlvi
básico
ocde
páginas
gradativamente
pant
##ences
anda
subten
extratos
competir
lotado
goza
comunitários
internamente
monu
incluídas
regulatório
distribuidor
##ité
geradoras
acusada
aceitas
pecúnia
xxxii
dividida
consistirá
acrescentou
increase
fotografia
interlocução
##técnica
imprescindível
negligência
vidro
facilitadores
fumus
##deramento
semoventes
diâmetro
tp
##icáveis
seen
emre
##ille
temáticos
##ficientes
ocupada
fere
solucionados
máxime
encerrados
radiofre
comparando
roupas
##estrang
esperados
emanado
próximos
primordial
##deverá
balancetes
these
abordagens
robust
anfitrião
worksho
lia
sra
reanálise
##gramação
desn
resil
maca
alusão
perqui
funeral
##cedores
nacionalmente
suapublicação
extranum
racismo
leito
vered
##ordenação
destinatários
simulação
simbo
gilberto
santiago
postular
##necessários
atinja
correlação
rigorosa
injustific
religiosos
incorreu
esbarra
curricular
agrupamento
enfermidade
triagem
sistêm
dequalquer
cotistas
anm
##ficações
polic
novidade
representou
##tinho
##gnos
##prove
quantas
##casos
reclamar
materialmente
originou
ajuizar
urbanística
pontual
compartilhar
ccx
dner
##prevista
desconstituição
elegibilidade
cvb
responderam
homogê
irradi
extorsão
bagatela
fumo
mut
ox
vírus
##gil
quenão
##quei
preste
unificada
subalter
relatar
##ático
##legal
cause
concluo
apelar
licencia
certificar
páginas
desportos
surgem
pdg
fórmulas
permissionária
anônimas
##fazenda
getulio
antártida
inúmeras
retransmissão
bela
cle
##gestão
##ulhos
anno
interven
embria
feriado
101°
caracterizados
graduações
proibições
debatido
lesivo
pecuniário
optarem
visualização
provocado
estatutária
transmissão
##servidores
biossegurança
proliferação
aid
banh
gart
mãos
ocaput
##fins
##°17
deca
##rid
retidos
conví
corridos
grava
##cínios
reconcil
empreender
cn2o
muda
recorte
subsist
interpretativa
nomeará
obrigatòriamente
inexpress
mencionou
teórico
##comprov
pires
canad
cumulativo
comunicando
marítimas
alcançou
acelerada
partidário
dinâmico
##julgamento
impulsionar
protagonismo
agronegócio
bento
nivel
sara
ts
##és
##hr
##ency
desuso
adje
assunção
nepotismo
executores
##nama
leo
limítro
regularizar
durar
demandadas
federada
service
montre
geográfica
arrecadar
mobilia
persecu
solicitará
sensibilidade
##trabalh
porcento
##́quio
videoconferência
desaparecimento
conquista
intergovernamentais
revitalização
discrep
##inuidade
convívio
big
##ê
##gs
##orçamento
##tência
ator
intend
prescind
impôs
curios
pls
loman
insistem
clí
supri
suplementação
##ciosas
mencionando
contém
mendon
ameaçadas
acontecimentos
permanecerem
lastreada
hídrica
generalidade
profundo
perdido
contextual
emocional
tropical
maquin
funccionarios
brin
ementas
pinh
uit
##úria
david
osci
nº8
1000
##ulante
foragido
estruturantes
corresponda
##complementar
oportuna
tornado
punido
facilitando
transformado
discriminando
responsabilizar
inefica
##onetos
obedecido
magnéticos
assemelhadas
vírgula
pirataria
##vestimento
##iberdade
bolivariana
##apre
##78
rebo
provendo
nom
caça
##core
atue
##cher
investir
articulado
industria
produzem
defensivo
micr
cadin
resolvido
acordão
districto
auferidas
desarmamento
acadêmicos
impertinência
sam
##ft
##cóp
dotação
##iti
cona
forços
sistemático
reconduz
tjlp
magistradas
corretores
##produtos
transporta
excludente
important
conseguem
válidas
explicitado
investigações
contínuos
invocadas
prejudiciais
religioso
amparado
enfatizando
exaustivo
extrem
aspirante
##procedimentos
##obrigações
bara
dna
ldo
mf
##cá
##°26
##âneos
##ition
incol
pront
artísticas
conservação
forças
aumentada
favores
##sez
defendida
##ponível
##ênciasocial
stri
mantêm
40º
impetrações
##menos
convergência
##onância
ilhas
1944
restaram
dispensável
cadeira
examinará
exploração
influir
cadastrado
##internacionais
devolvido
##º45
##equip
ocupacional
sisnama
##ênciade
getúlio
pormenorizado
guerreada
sudeco
8ª
aexecução
heg
kim
were
##mal
##madas
supostas
##useram
cação
tereza
perfaz
focal
interino
##paciente
juizes
aplicativo
sanado
diferencial
comprovantes
##tidões
##ésima
caracterizando
mecânica
variações
renovar
levantados
convocadas
abusividade
mpf
científica
varejista
quiser
benéfica
guindar
oconselho
use
##ó
revolução
##itável
queim
portar
##previdência
transc
##umidade
abrindo
50m
##comércio
concretizar
ampliando
tipificação
naquelas
pontuais
compartilhado
escoamento
notícias
rigorosamente
legitimar
roteiro
cabotagem
prefeitos
majoritariamente
doutora
comentários
fazendária
perdurar
infringência
inovadoras
ficado
##pto
##bro
##rael
##riar
macap
praticou
petições
reconheço
sociologia
diretórios
ressalvas
sustentada
universitária
dirigidos
rejeitos
precatória
fornecendo
adaptação
juntados
##administrativo
##federais
tutelas
dejulho
##terapia
liquidadas
requeiram
consumeristas
rin
time
dei
no10
exag
sumar
desem
##tragem
infil
empi
##legais
plenitude
moratória
##rimôn
impedirá
denegatória
aires
112o
reclamatória
absolv
voluntários
temporária
transcritos
destituição
averiguar
inegável
papéis
cy
cpl
dêsse
york
##tono
##osó
ouin
preta
pour
nº9
qualidades
sobrecar
##cíveis
prático
israel
promotora
violenta
exigirá
soldado
conjugal
funcionará
médicos
67º
evidência
ill
ajustados
lançar
separadas
labore
considerável
contemplando
acordada
reporto
##autorização
conformação
científico
desenhos
liderança
alfândega
enfraque
mercúrio
irá
##fícios
##darem
##mor
##°25
##íbe
dép
reclassificação
proxim
noâmbito
extempor
##crevendo
elev
##hã
possivelmente
falsas
hábeis
dentistas
duprat
##ricultura
only
aduzindo
mirim
contemplado
semelhança
transitório
intensificar
evoluir
consagrada
conversíveis
sensibilização
colateral
desdobramentos
bm
cet
pt
viva
vdfm
##fício
reú
dapres
dafazenda
common
inalien
expos
##erantes
apens
potável
restar
maia
1921
##território
##exuais
##segue
garantidor
back
substituindo
##princí
reguladores
enquadram
population
chamou
camara
recomendada
convenientes
1937
##óricas
surtirá
exaustão
embasada
hidrocarb
custeadas
##processos
grossense
provocada
hidrelétrica
vitória
quinzena
##função
##ient
##°05
##entidade
aumentado
subitem
##bert
##promo
diama
##́rus
##part
pronunciado
versando
examinando
classificar
avanços
configuração
desejando
states
deacordo
##contrato
esportivos
recuperar
básicas
codificação
reprovação
intimações
abster
demol
satélites
republicano
repatriação
têxteis
##indústria
lrf
##serão
dai
##bles
entr
votado
##urgo
expensas
pesquisar
##favor
expedindo
revistos
differ
proibidas
variados
etária
malferimento
aduziu
restituídos
aparelhamento
133º
religião
##oficiais
abordar
reproduzir
ctnbio
italiana
fndct
assertiva
defevereiro
transfronteiri
région
próximas
##municípios
estudantil
incolumidade
giu
well
##uru
##°14
##újo
incompetente
nocaput
##unas
nativas
macedo
anulada
direcionamento
##egimental
umas
subconju
##estas
181o
nesteartigo
interpretações
implantados
cientistas
obstru
razoavelmente
variadas
modernidade
prescrita
sensíveis
harmonizar
transitória
##relatório
estatutários
odontológica
obtiveram
reivind
engaj
ogm
wal
##cies
##cibilidade
presídio
anulado
formos
artistas
executora
valerá
autopeças
pudor
despedida
invad
culto
refeição
finalísticas
baixas
expedidor
efetuará
colônia
vídeo
dissídios
cessões
aproveitar
cediço
desembargadora
cambiais
##públicas
otimização
genéricas
agilizar
iguaçu
vacinas
maciel
##circunst
eva
##70
predial
faça
extração
extraordinários
##urt
##ury
information
##álculo
lagos
médios
corretos
##ênios
trigo
pressão
residir
evidências
cobre
geradas
##enove
viabilização
suscitar
retirados
inversões
##equival
combatente
tolerância
perpetrada
ontem
subjacentes
paradoxo
inventariante
##65
##ólogo
dolos
quei
descu
pô
atmos
agravor
endivid
legalização
elementar
instituída
ativas
delic
continue
ocorreria
constantemente
colóquio
obstam
querem
trocas
aproveita
incumbência
loteria
reconsiderada
tarifário
diagnósticos
distorções
italiano
subsecretário
aparato
bina
oinciso
sina
##óis
dain
##usp
##low
apresentarão
comunitárias
##contribuições
discuta
transportadores
orientada
médias
##́rqu
provado
compensatória
facilita
xxxiv
incorporação
homologação
gdap
##período
vivem
itália
##utilização
garcia
liquidada
##origem
contraditório
ze
##ucle
##fat
##ss
##eld
emposs
desent
desig
##cular
agas
indisti
infracionais
edes
informadas
##úncia
ofertado
antecipação
experimental
xxxiii
araújo
consistir
gráfi
lxxx
quadrante
##efetu
rótulos
trajetória
prioritária
despejo
##vigor
dinâmicas
intercambiar
##rínse
municipalidade
agravoregimental
fem
if
lid
âmbitos
##ditar
##hy
##ricos
##erência
doadores
inim
incex
##anças
tox
constituído
##ferível
##pop
president
pescadores
documentais
##comend
envolveu
financeiramente
trazem
restaurativos
vinculação
imaterial
soneg
aguarde
retroativos
bombas
desastre
misto
gozam
##instituto
estivessem
típicas
contrariando
pedagógica
intersetorial
múltiplas
##cautelares
conforto
bona
##°24
##ízio
pretório
põem
annos
perto
embaraço
afr
##rutas
subsolo
90º00
significados
substrato
tuber
constatação
fundamentalmente
supervenientes
divergentes
dedicar
obedecida
arbitrariedade
amparar
gozará
esquemas
acadêmicos
retardamento
aconselh
##próprio
##mentam
semente
##anco
##diesel
regresso
##atas
perme
subcom
dependa
##ílico
##muneração
opções
colega
vincular
102º
consignei
celebração
regulamentadora
inviáveis
creditos
rápido
antigas
escolhida
assinalar
vêzes
secundária
qualificações
impulsion
filantróp
##benefici
trindade
dedutíveis
##requisitos
subterr
irrecorrível
bress
utens
##alho
##ics
ascondições
##ituação
vogais
##ficamente
seguiu
primários
determinações
##empenho
impetrar
cooperativismo
conflitantes
ilmar
##risco
estável
danoso
acionamento
definirão
ruptura
pactuado
descarreg
ponderada
quilombos
lxxviii
implementou
prospecção
pedagogia
previdenciário
apelações
georrefer
macrodesafios
mj
tru
##efeito
##ômetros
datada
emvigor
queo
##unho
##mag
desab
##creta
segurada
##rável
dezenove
estacionamento
##ítrio
fixe
elabor
##borah
simplificada
reiteram
compensação
agronomia
escrut
##ière
societárias
draga
recíproco
minorias
ocultação
enumeradas
vermelho
compulsório
arresto
glos
oms
##demais
##60
carol
##mbre
lead
vinici
coletadas
##rinhas
titulo
leves
filosó
colher
tril
transformadas
cumprem
atuarial
reformados
indenizações
diagnos
injustificado
##domiciliar
telem
barreto
maceio
filantrópicas
endividamento
##ther
##ky
##teção
tome
##tosa
operado
instrumentais
##pate
cerne
ambiguidade
##back
analys
contrários
implantada
ilim
guarn
arbitrada
ensejará
progressão
questionários
efetivados
restituído
debater
##cinal
dependência
afirmaram
estatístico
169º
aborto
culpado
##strução
aprofundada
trimestral
fotografias
usufruto
world
vendido
##bes
##vm
##ximo
dantas
proba
promitente
arnaldo
osrecursos
##soci
##blo
tratem
##abel
consonância
##ícia
agiu
cabia
moneta
exclusões
centralizado
colegiadas
licenciados
parcelado
vídeos
ordenado
ligações
improcedentes
acionária
106º
conexão
penitenciários
milhão
sérgio
reportando
higidez
tardia
interlocutória
rubens
desatendida
preceitua
rêde
prevalecente
vinicius
clo
dl
vá
##rul
##led
##deiro
##62
##yd
dão
concurs
proíbe
##tabela
resist
##cretário
cartora
##úmero
procurou
creches
geridos
sinaliz
firmadas
figuram
sofridos
versus
suscita
comparar
examinadas
qualitativos
braga
quinhão
arbítrio
conceição
centavos
fios
##autos
##°27
##útil
reter
emge
noprazo
##ules
##deri
trava
prest
práticos
conheça
cere
normativamente
barreira
demonstrem
possuindo
cárcere
ál
indiscrimin
oferecem
caracterizadas
sentences
completos
subsidiário
ordenará
reajustado
##gastada
assumida
imputável
ção
sediadas
excetuando
inglesa
reafirmação
inafastável
inflacionário
##mediante
hidrocarbonetos
gor
mam
main
##versão
direcionados
##ated
embara
adotem
cumpriram
contribuiu
precedido
##propor
exclusive
##rini
construída
##ciplina
licença
ínt
modernos
quartos
últimas
cobertos
escritural
distingue
redatora
anuidades
delimitada
gonç
ratificada
bairros
inovadores
##corporação
ascensão
intérprete
proximidades
tuberculos
ead
iria
nisso
zo
##urou
##acordo
##zon
##iness
##táveis
##ulta
regina
##icomp
resear
almo
##ensões
crises
votantes
policiamento
minutas
autorizando
soldados
condeno
possuírem
assistida
celas
habilitações
liquidação
compensadas
chap
revers
formalizadas
adolescentespertencentes
173º
uniformizar
positivamente
majoritário
##cultural
arrematação
vereador
reinser
quinquenal
ave
vec
##db
##98
##escri
quê
compos
asatividades
esg
##anta
pend
votação
julgá
policia
emper
acompanham
aprecie
##prova
usp
argumentação
distribuidoras
atualizações
significar
exaure
separar
inconveni
magistrat
liberações
sensível
explicitação
disciplinados
preconizado
seminários
achando
garra
favoráveis
incontroverso
fraudulenta
desequilíbrio
desobediência
gasolina
ativamente
ditas
spa
óleos
deborah
cô
##ander
oude
##plas
infanto
##iscalização
cumprirem
pagarão
falsos
possuía
reforça
alegação
compensados
freire
rescisão
##demonst
ressarcir
incapaci
vulnerável
corporações
##audi
tenentes
suspeitas
fragil
disponibilizará
##deverão
irrevogável
eiv
sicom
ético
##titu
##°09
##itárias
pelalei
app
contestado
má
pautas
constituiu
agru
##urs
sistematização
requisit
##gnó
configuram
indiscu
exauri
vistorias
##obje
gratificada
disciplinadas
##contratos
tributários
psicotécnico
petições
acelerar
aspirantes
circulação
##iversário
development
desempate
dolosos
maceió
etique
star
vos
wo
xingu
##iência
doartigo
datado
indo
##çada
dasatividades
afinidade
pedi
##pectiva
desempenha
assumindo
agricultor
liquidados
punida
##incisos
quarent
ameaçada
aproximar
enfrentou
sigla
incondi
reconsid
voluntária
113o
incluirão
receptora
179o
transmitidos
gozadas
artificiais
publicitária
##ântara
dedicada
dolosa
##física
insolvência
latrocínio
p2
sad
##ation
##lin
##2º
##73
##artic
##iner
##elétricas
incont
ars
juvenil
##çados
1919
voca
oficina
certidões
participativo
cpj
estruturadas
impeça
tributar
##ings
subsistir
explicação
comprovação
digam
encontramos
localizar
punível
assumirá
acabado
aduzem
inexistentes
descob
conexas
prévio
bandeiras
pnad
pnud
temporais
designações
dejunho
patrocinador
arroladas
alcântara
hidráulica
ensaios
aderirem
paralelamente
bresser
mira
##base
##hts
##ridi
##stj
inaltera
apensa
##egal
peremp
comprar
##terno
##feridas
consideravelmente
sacri
##íticas
trabalhado
correspondam
homen
mortos
produziu
decidindo
compensatórias
pertença
seletiva
reversa
biodiesel
terminar
ingressado
emergências
egressa
##econômicas
##estaduais
sigilosos
dalegislação
comentários
perdeu
rapidez
carneiro
technolog
cuiabá
qü
##ires
##̂a
##ya
##oss
nocaso
##tários
exime
##cionando
desegurança
contravenção
movida
subcontra
relatores
defendem
maneiras
agressão
transpla
##tilho
referindo
pacificação
nature
estudios
distribuidora
cinge
simb
vigorarão
tomados
facebook
deficientes
revisto
estimados
mobiliário
promulgação
ouvidorias
infringir
desejar
estatutárias
buenos
##ologicamente
música
aex
haste
##iriam
##trito
read
##isla
##eleição
insegu
##ilar
descendente
activ
##come
casti
administrada
agindo
##correndo
raro
objetividade
condutores
resultam
proposições
##enderá
apreensão
manifeste
guido
convertidas
##anato
bastasse
old
reiterados
líquidas
sucessivo
condicionar
remetendo
noticia
genericamente
vitalícia
redigido
pautada
inidônea
brigada
arqueação
atípica
cír
eas
fco
##será
##°04
cop
sema
##erage
att
compan
subida
##itavelmente
distantes
invés
favorece
##missão
##compro
descumprir
comissionado
juntado
singula
denunciá
alcançado
incognos
arroio
equilibrado
ressocialização
##upervis
##documentos
analysis
qüin
##pelos
##m2
##indispens
severi
conj
incl
destedecreto
##plica
comunitário
##ômico
suspeito
apreciando
sans
tecnológicos
semprejuízo
privativamente
excederem
litigância
reservados
cancelados
intercal
##diretrizes
décima
inverso
coligações
absorver
magnitude
doping
##úmeros
impertinentes
oneroso
degradantes
michel
reinserção
pf
sites
sinistro
##br
prognó
desesti
dasecretaria
disson
##ceis
montes
móveis
moyen
constou
regularizada
curs
##pectivo
cobran
bastos
online
começa
prossegue
aferição
contágio
agropecuárias
acordar
precatório
debru
mídias
conferência
interrompe
parâmetro
legítimos
pretensões
##médica
pneum
constritiva
analyse
atacadista
familia
psiquia
florianópolis
7ª
fds
##cemos
##âmb
ems
oure
##inistros
2023
forçado
##ficados
##metria
desenvolvam
infrações
comunique
programação
vedar
figure
demonstradas
costas
comparativa
reprodução
térm
expandir
surpres
patrocínios
##elles
conscientes
profundas
programática
aludiu
incompleto
##instal
submetemos
review
solenidade
dapresidência
air
##esco
nogueira
such
##userem
tomb
leino
salto
violentos
viaj
escolta
boca
mortalidade
importancia
xxxi
lavrada
assembleias
derivada
detalhados
##polis
114º
adaptações
remanejadas
repassar
reunirão
automóvel
egrégia
adulteração
cumulada
cplp
dual
fno
##event
##oeste
##nicos
##aa
##gica
##100
##ciará
recesso
nahipótese
sudo
contê
preferi
aniversário
impla
votei
##ficante
raim
objeção
saude
afre
afora
atribuída
visível
funcionam
antic
conversão
##étricos
discricionário
combase
rescis
retirado
biomas
acarretaria
prioritário
excessivamente
barragens
sítio
litispendência
political
autônomos
carcerário
country
saudável
lubrificantes
honorários
tun
vimos
##oreg
##ulem
##cesse
preda
##cato
pende
##exclus
decreton
justiçapes
publicamente
fev
##estima
criminis
materia
##comum
requereram
calheiros
##̂ncio
subseção
etílico
estimulando
motivadamente
cancelar
##rinter
nunc
madeiras
penitenciárias
internados
##outras
what
alimentícia
##financeiras
litisconsortes
embargantes
refug
emissor
absolutória
afrmm
tuberculose
sudoeste
itu
pano
sena
##figura
côn
##edito
##cuo
power
##congresso
##embar
autode
##eneidade
dezembrode
stand
torres
urnas
morta
gerência
olh
retiradas
formulários
contemplada
##direta
avisos
habituais
srf
auxilio
resumido
licitatórios
conscientização
expirado
dragagem
nulos
simetria
−−
##gá
##°21
seisc
inpc
provada
contador
##dez
##icitamente
grama
ofendida
level
leandro
##téria
competitiva
penalmente
##inamente
renan
encontrou
business
##comput
úteis
gerências
motivou
cruel
canceladas
persons
fluência
costumam
análogo
arrolamento
reciprocamente
grosseiro
seqüestro
gabriela
de2001
desertificação
cil
gatt
omissa
##já
##ric
##alário
##cession
direcionada
##atárias
caro
decido
votante
mina
convívio
##tors
custa
libras
##vasf
estufa
cooperados
ordinário
tesou
apostas
assentos
indiretas
configure
implantadas
sabia
##parcial
nullit
depositou
guarulhos
possibilite
##cted
pretendendo
candidata
convocará
fundiários
petroquím
transações
restringindo
rápido
emprêgo
espécies
##nnnn
próximas
hidrográficas
meteorologia
##registro
católica
ei
kat
ovalor
##cão
dação
inva
##çado
##imó
maz
consistem
medici
##ísticas
##nome
goia
planalto
000m
fazê
societa
cpm
consulados
implicações
tornaram
chegaram
seletividade
condiciona
ineficácia
assessorias
combustão
sugestão
##°47
refletem
fenômenos
##culturais
exarado
avaria
thesouro
devolutivo
fdne
condizente
##particip
aeródromos
gartner
##rer
##aut
##aux
##gb
##68
##work
detrabalho
asecretaria
##quant
##izo
##iações
into
impulso
caiba
carente
pragas
repúblicafederativa
agrg
locações
destacados
declare
expend
rodas
registrando
relemb
transportados
duarte
guaran
ferraz
imediatas
ocorrências
colocam
evita
explorada
gdata
repassado
##°57
plantão
128º
fidu
perigoso
açu
renovável
injúria
eletrificação
arquiteto
##keting
fragilidade
aceitável
imperiosa
desafiada
eca
had
##dy
##gên
##vamos
##97
##°29
dejustiça
##rinos
##alos
##uni
##izará
##amo
end
10ª
pagadora
lacer
anotar
chin
ensinar
impugnadas
beneficio
universalidade
errado
inspecionado
reiterado
derrog
amorte
avançar
fcp
creditórios
resguardo
##econômicos
sérgio
listadas
8471
convencidos
sêlo
pétre
luciano
##tão
##orn
##itória
inferência
parao
##cionistas
contesta
##guá
entendidos
##atendimento
carros
##issem
cnc1o
##pendentes
filiado
pressuponha
oneração
##caba
especificará
selecionado
guardam
incorporando
ensejaram
convencionalidade
emerge
dificulta
tipicamente
prescritos
##capital
aracaju
boni
psicológico
periódico
energy
levaria
interlocução
impugnações
embrapa
ignorar
multidisciplinares
encaminhou
controvérsias
envelhe
carimbo
##técnicas
cônju
ihe
teles
##°20
##xe
##ks
dona
dap
secon
##total
apa
adem
##cob
repis
##ranet
eleição
habilidade
##ioso
estaca
origens
adotam
garantidas
quadrado
regions
soldos
barras
incluiu
impedida
trâmites
conselheira
lucena
oferecendo
pertençam
regulamentados
quantitativas
average
remédio
discriminado
pretendia
siga
pacíficos
levantado
domiciliares
somados
valorizar
rigoroso
emanados
recai
##presentação
motoristas
apenados
financiadora
pretéritos
olvidar
percepções
derradeiro
televisão
montreal
clínica
forçoso
aaplicação
gmc
otn
tóxicos
##mática
##átri
##estos
dous
expe
apó
discordo
unitários
lucas
competem
declarará
dataprev
mag1o
##ciosos
providas
existia
envolvia
reunidas
licitações
intimados
educativos
começo
senão
funcionalidade
incumbido
subscritas
lesividade
descontinuidade
##hard
agregar
auxilia
presencialmente
retornado
otimização
codevasf
##comitê
##comendação
hart
siste
##don
##área
deo
reag
dama
invés
estím
sudão
##adap
leia
##orestamento
informativos
indícios
crer
acrescente
naturalização
sucessiva
ruas
##estabelecimentos
pecunia
lineares
##quadro
official
nocivos
##importação
multiplicando
fundeb
##entorpec
preclusa
inventariança
leopol
gonçalves
lacerda
ate
sto
##pem
##alth
##dorismo
juntos
ald
puc
nascido
confesso
##cero
##́mulo
relacionam
revelador
imediatos
##́ritos
ofertar
ocorram
numeração
hiera
monetárias
alcançadas
emergentes
detectar
##financeiros
editorial
prolongamento
preconceitos
interpretativo
engloba
clínicas
pnae
resíduos
frio
##fam
##°19
detidas
preco
pouso
imprimir
defendendo
fundaj
fundacentro
cerve
avalie
atuarão
analítica
entraram
etária
placa
senadores
remetidas
aproveitado
suspensiva
inquestion
dividir
##diretamente
responderão
cogita
contestada
grief
frise
inquéritos
imprevis
tubos
tácita
preocupações
escassez
anulatória
procesos
nivelamento
stricto
binacional
jard
##land
##tenham
##°16
##xa
adin
repres
##maneira
elevadas
realizarão
ison
quadri
providência
due
afasto
absur
companheiros
sofist
subsidiários
xxxix
fiador
irrepre
recomendável
absolver
##°48
metodológica
pactuados
sigilosa
##azeiro
proporcionando
conquist
leiloeiro
exemplificativo
prefácio
subdelegação
moyenne
bul
odesenvolvimento
sinar
##gésimo
##heiro
detido
##riada
copos
dio
##gorar
tradutor
mães
obri
##ísticos
autoapl
manage
manhã
polos
leitor
publicou
saques
importem
##rinhos
creche
virtu
102°
implícito
olha
querer
começar
rejeitado
reiteradamente
constituintes
pross
voluntários
equiparada
orgânicos
##º59
oralmente
##outros
proponho
indaga
custodiado
melhoramentos
matemática
irmãos
##extraordin
##despesas
##emnúmeros
hierárqu
cés
##pelas
##figu
##71
##°23
##ward
##x1o
dac
seio
invoca
##ciabilidade
##cessidade
##viário
output
defi
nascente
client
depara
participando
atuarem
conceda
##endência
profissionaliz
tecnológico
##missões
afastadas
possuía
restritos
deixei
consignatário
celebrada
comparativamente
introdu
múlti
extrajudicialmente
rui
##ief
##°39
##previsto
vulnerabilidades
consagrados
embasar
matriculado
câmaras
advindas
##constantes
hidrográfica
quilos
bilhete
climáticas
correicional
fuzileiros
##fora
##º24
##jt
##alí
##onão
dosistema
regen
##abele
mauro
##irmo
advir
##egulamento
##tran
transitadas
disto
desencade
27o
##ódigo
edv
principio
##tempo
obrigatório
habilitação
enfam
education
bancada
combinados
surve
corregedores
##supe
excessos
inferir
irrestrito
nutrição
caminhões
rodízio
vocábulos
sanches
improrrogável
##efeitos
##iane
##áreas
rebat
down
##tios
estáveis
difici
atesta
##convenção
autocompos
produza
0004
tecido
##ódio
corretor
##tini
visitante
classistas
voltou
querendo
lance
estimar
mensalidades
sucessora
descontados
palm
##°58
178o
memoriais
profundamente
rubricas
proclamou
sigilosas
genéricos
empreendedorismo
oscila
travail
research
dc
hy
##çá
##́fica
##vila
donde
nombre
contraste
##ína
autoras
transbor
indevidas
observador
roga
merecendo
cooperativo
guiana
protocolados
colle
remem
condicionadas
discriminada
sexuais
cartões
couberem
igor
deprevidência
129º
cenários
autuação
redistribuição
desobrig
omitir
aids
a2
bron
garg
mb
##rcio
##mados
##itec
##ciações
estiva
ascendente
##stituição
pau
casca
findos
executividade
captar
planeja
##berg
informam
identificou
##ndido
##etário
exportar
implicitamente
morro
##ícitos
pertences
cessa
cometeu
modernas
rescin
acumular
indisponíveis
inerte
indicativos
microempre
116º
vulto
fernanda
prejudicará
jornalista
comunicarão
substanciais
pactuada
inequívoco
suspeitos
raramente
bobbio
indenizatórias
interventor
avec
peg
##uamente
##bada
##ógrafo
deorigem
##radores
dosrecursos
esb
##abet
forenses
sistematicamente
minérios
integrativa
operados
infraero
discutindo
chica
chances
manifestando
consolida
monitoração
punidas
dissenso
rejeitadas
defensivas
concentrar
conclusiva
esgotado
esperança
lastreou
169°
corretagem
defendeu
##íssimas
modificação
combatida
visualizar
índia
contestar
socioambientais
navegáveis
subjacente
máquinas
suíça
parnaíba
nullité
cesar
##ata
##cros
doanexo
ministrar
enter
sobremaneira
raciais
pagando
funcionando
coletivamente
desempenham
construcção
eventualidade
fila
sabendo
tesouronacional
testador
lançada
remição
surgindo
resolveu
levantadas
czpe
reconsiderar
itape
capitães
imobilia
prédios
análogas
ocultar
irrelevantes
##ogicamente
rebel
haverá
expert
expenditu
pin
sisco
west
##̂neos
##vat
##75
delação
##edação
divida
divor
##lândia
##court
defront
vogal
instante
13ª
indiquem
tabelionato
credora
baixada
construídos
desacato
centralizada
individualizados
assistidos
gratuitos
removido
termina
fornecerão
compatível
fruta
jornalistas
pontuação
leilão
km2
citações
alcoólicas
amarela
conscientização
ultima
encampada
corumbá
válvulas
temáticas
microrreg
dificilmente
llo
oposta
ótica
p3
uber
ínt
##edo
##ot
##fias
##semos
##nco
##2000
##64
doado
queima
##edos
resume
##atribuição
##cível
competitivo
insan
caputdo
##ficiência
formadas
23001
cnc
limitam
laços
transportadas
solicitações
##enomin
persist
confrontação
comparados
ingressou
preservado
amortizações
reprimir
##douros
raciocínio
culminou
##grupo
deterioração
expropriante
ritmo
subconjuntos
cei
gf
hand
mw
##rr
##rent
##ls
##cadamente
##bres
##°08
depor
##aleg
dava
qua
##ons
##grau
deserviço
cabral
cnpe
haiti
##tices
medidascautelares
obrigando
gerido
vinculam
john
acident
possibilitou
versões
##ânio
indispensável
descontado
ganhar
ganhado
injusta
esportivo
selada
homoafe
impossibilita
rádio
concebido
should
bimestre
replicação
cármen
algemas
perquirir
surpresa
cct
dares
sino
##1a
prode
parada
dilu
deserviços
poços
##atual
cartilha
##varo
##minos
praia
entregará
vetor
##assu
habeascorp
instrui
instrument
pesos
causem
recorda
organizará
56º
identificadores
começ
##102
##arrecad
effica
##º56
argumentativo
##instituição
rubri
motoci
iminência
subchefe
seqüência
deoutubro
videofonográfica
habeascorpus
itr
##zel
##°28
##°06
##orno
##reo
##red
conforma
paras
##diam
acham
corri
##pocas
suprida
concessiva
##trica
corrêa
##cano
revogando
continuamente
extremos
autenticação
precariedade
##°59
ofensividade
inadimplente
matrizes
atenuantes
pautados
abandonar
republicana
##xxxxxxxx
europeu
substantivo
revalidação
decrescente
intervenções
absolvição
raimundo
rescindir
siscomex
hem
##nicas
dotadas
emman
exatos
##dialmente
##deci
##decorrentes
pous
atração
impass
alcool
agri
ordempública
violada
##contribuição
##etti
impossível
construídas
construído
atrás
mortem
reiterou
radioativos
colaborativa
desembara
diplomatas
##apenas
juíza
recintos
compartilhados
arrendatário
##estabelecer
##°55
costume
inequivo
pedagógicas
espontaneamente
tentando
científicos
didáticos
resseguros
canadá
chicago
leni
oartigo
rico
sk
vp
##mão
##yn
juazeiro
pobre
1915
repel
viana
##ficam
respeitos
north
semic
embri
incisoiv
##ãoser
delitivas
##cargo
negocial
negociadas
utilizará
##provid
informarão
proporciona
exportadoras
##hose
##fiex
comporão
persiste
subjetividade
amazo
conseguiram
igp
compradores
receptores
##°38
increas
salvaguardar
prefeituras
migração
desconsiderar
wash
coordenadorias
incompleta
consorciados
décadas
cavalcant
infográficos
precipuamente
utensílios
liii
ris
##cture
estal
##mpo
contí
##amedida
causo
primaz
funag
exerceu
##ignação
comunitária
falido
impeçam
proporá
protege
capacitações
assentados
reiteradas
irrepará
camada
concentram
conveniência
contratualmente
##finan
sôl
descentralizados
precisar
tripulante
enfatizar
subtrair
diagnósticos
##vestimentos
burla
japão
##uclear
sun
##çável
##vest
deab
reabil
estig
dir
##tech
##imedia
escore
prescrever
presunção
##covid
repo
contraída
validamente
infirma
saae
pedem
durado
equiparam
possuí
aquisições
sustentação
fracção
quatrocentos
sofrem
comportar
históricas
defensora
disporão
surdos
disciplinam
ruim
absorvida
when
superficial
instrutor
##ogle
farmacêutico
frustração
studi
ccee
retificada
siderúrg
licenciatura
management
cavalcanti
fes
ods
vise
áudio
##hada
##yo
sea
##anais
probidade
noexercício
actual
alma
aliás
##ferem
valôres
##jurg
##jante
raiz
constant
interio
menina
opcional
procurando
implíci
ilícito
amplos
amplas
dissim
chapas
acessível
acúmulo
diplomados
armazém
armazenados
palmas
remanejado
transmitidas
temporalidade
absorvido
tentada
acentuado
preocupações
negras
precaução
aeb
calibre
paraolímpicos
indistintamente
singularização
ces
kilo
##zione
##cter
dedo
##ents
emde
porções
accor
interde
nacionalde
defesas
ofícios
google
informante
##cht
pacificou
tributado
tripart
sabem
geod
subseções
certificadas
substabele
genética
##boa
criatividade
acumula
biomédica
subprojetos
##integração
transmitida
demarço
excetuam
teleg
doutrinária
directoria
àqueles
inutilização
neutralidade
londres
irmãos
portáteis
criam
vendidas
##daram
##º21
##hado
##96
##°10
##ícola
derem
##istribuição
##atra
objurg
reputar
casado
finsocial
##tero
##seus
temer
##assess
administraçãopública
curta
##programas
conjugação
atenderem
mandamento
ordenadores
formalismo
litigante
reincid
estranhas
deslocar
madei
brevidade
duplamente
trâmites
recipiente
abordado
##processual
nonages
nocivas
pacificado
sucinta
convocação
richard
currículo
inequivocamente
ár
iso
##irim
##nais
##tível
cominações
##itora
##atem
price
crítico
##assist
##contr
criminalização
relacionamentos
permitiria
individualizado
reforça
históricos
comissário
levantada
period
veterinários
imigrante
psicólogos
psicóloga
inúmeros
consumativa
alumínio
veredic
carolina
precoce
cancela
gs
lâ
lida
##ocup
##lar
##dh
##°07
##rialidade
##entido
##cient
##als
inunda
##unes
1923
diretivo
##atrimônio
##ficada
##icídios
##exped
##tua
##tuba
serviram
##critérios
inscul
##pamentos
garantirá
voltando
##iadora
dirige
infec
afegan
obedece
180o
esgotados
avançado
desfaz
##pertin
satisfiz
##°46
pleiteando
pleiteou
jornalística
contorno
ajuizou
alfandegados
ínf
estiveram
extinguindo
grifos
liberalização
salientando
favorecida
discricionária
engano
bilhetes
##ponsabilidade
gasoduto
primazia
g1
oea
##85
##84
##°18
##ick
daordem
quint
novel
desvant
##utado
##irre
enforce
sobreposição
prac
teatro
declarante
apoia
emprega
plenária
##celos
difere
ensina
continente
mobilizar
progressivas
incumbidos
frontalmente
frontière
1938
divide
influencia
avigorar
palmar
sursis
remanejar
retratado
automotiva
derechos
entrevistada
##economia
regulamentações
flumin
modificações
goiânia
fórma
##orçamentárias
imbri
permaneça
iraque
cntr
múltiplas
provincia
états
##derivados
washington
nonagesimal
lição
mento
sine
up
##dita
##dinho
dera
decons
decontrole
cores
##tiu
##timos
oua
ouv
##grado
point
##vierem
federalismo
##ensar
viad
viés
validação
abal
marketing
habitação
1500
acober
participará
bap
nue
adicionada
change
100º
biológicas
inicio
bebe
verdadeiramente
surgido
ofereceu
personal
descontadas
esquerdo
breves
destruir
contrapartidas
registradores
rtv
jazidas
esvazia
ronaldo
seiscentos
motocicle
causou
pgr
tatu
uti
von
##tv
reed
##anol
osarts
##izante
prescre
assign
estabeleçam
##ambiente
pedágio
rogação
equitativa
operem
model
irdr
bank
levem
mensalidade
padis
entraves
preencham
populacionais
históricos
transformando
benesse
auferir
religião
delimitar
monocrática
fulmin
unilateralmente
rescindenda
brigad
fundef
carcerária
pilares
dpvat
hipossuficiência
million
sauda
goiânia
irrepreensível
lloyd
àsa
##nça
##tst
##º20
nat
estará
escon
cae
pugn
##valdo
0003
situar
pesquisados
aplicativos
míngua
favorecido
calmon
teletrabalho
acid
spu
modificadas
certificada
silente
radical
ordenada
110o
benjam
##°37
##°56
xxxviii
glosa
encorajar
impreci
extrapola
##profissionais
positivismo
exarada
guimar
afeganistão
9ª
epe
lex
##há
decesso
comm
incurso
art1º
##pé
pele
##mps
matar
adidos
##cot
instabilidade
##contribu
recorridos
alegadamente
perife
improvimento
acusador
afirmativas
disponibiliza
remanes
delegação
condicionados
remover
concentrados
cenários
effici
intelectuais
184º
impressa
migrantes
percebeu
descarte
abordados
exaustiva
protestos
gráfica
dólar
necessarios
suspendeu
tabelião
agroindustrial
amaral
##proveitamento
provinciaux
area
litoral
nona
oposição
##74
##osco
colação
##erj
reação
desqual
##devida
access
entram
##ford
facto
contrair
gradação
defendido
abat
formando
instruem
definem
laje
negoci
siqueira
##andis
irb
profissionalização
impugnando
regulamentou
denominação
tomadores
liquidar
pensando
guardi
marinhas
aeronáuticos
acompanhou
mattos
microcrédito
proprietária
desejam
satisfaça
posicionado
padronizados
acautelar
transmitirá
judges
artesanato
aportes
prequestionados
atestada
neutro
emendada
transversais
securitização
##ociedade
dispõem
fpm
mistas
dequ
quea
noparágrafo
caridade
caet
presidiu
convêm
aqual
abriu
prisãodomiciliar
197º
compromiss
articuladas
genéticos
seletivos
dizeres
being
postul
alocadas
conduzidas
dependências
percebem
surtir
patamares
ponderar
totalização
concordata
confidenciais
pilotando
##bricas
transtorno
economics
elucidação
reclusão
estímulo
hiv
oreg
rita
velar
íns
##mt
coaf
##entença
reclass
##identes
##remos
estilo
intercon
interroga
seguras
seguidas
fine
capítulos
voos
199º
let
ley
##órdia
##réditos
ausentar
##ínimo
atuado
visões
visuais
refiram
litros
decidendi
movimentar
condicionando
recomendadas
##dispon
coberta
ideologia
sensação
equiparadas
instrumentalidade
adjudica
##criminal
deinst
##tribut
líderes
preponder
custeados
conversar
alcoólico
##corpora
##representantes
beleza
pintura
petrolina
homogêneos
guimarães
fge
rgr
proficiência
deságio
precurs
##viais
##íqu
integrarem
milho
dependam
projetada
stn
nume
dispositiva
69º
méxico
hotel
consultivos
since
crença
cidadã
parceiras
ajuizado
sofrida
afirmativa
histori
computar
objetivem
automáticas
retratada
135º
##°34
134º
exonerado
##º46
tarifários
reafirmada
ganhou
##financeiro
freqüências
redigida
mensuração
##analis
editora
fisio
indébita
##reiros
reflorestamento
annual
grow
ônus
baptista
brando
cne
jg
##ium
##nar
##lógicos
##tentes
##ticar
##gma
##bens
##90
##àriamente
dedu
queiro
##edro
##çu
anon
##met
decretado
necessitem
meridi
0005
##estatais
aplicáveis
##candos
aderido
##caminh
compreh
morto
priori
afeto
1939
detenham
somam
fugir
soro
desejado
bonito
dedrogas
valoriz
##estabelecida
dareceita
##º36
emancip
comprobatória
##pessoa
##específica
lisboa
##jurispru
currículos
buri
kno
kels
lag
mid
p6
vendida
##eo
##uje
##stante
retas
remar
quitados
##inf
inju
arcará
contun
contanto
##forne
paix
##conden
##ensino
pugnou
partí
##log
##ísseis
declarações
indevidos
basear
caberá
resultaria
bata
##empora
##ônimo
ordinárias
cabeça
vedados
indeferidos
gerações
celulares
deficiências
psrm
imune
throu
preservada
oitocentos
esclarecido
salientado
ingerência
correlata
##°35
desempenhada
autuados
solidário
promessas
vascon
lançado
irmão
##cmv
relativização
desocupação
andamentos
saraiva
reúne
elaborou
geodés
cena
fitas
gent
híb
xavi
##ecretário
##bá
##hip
##hamos
##83
##inando
##erância
##eij
serpro
trauma
pelotas
##ates
grati
##express
marcus
semestrais
requisição
previdênciasocial
identifi
reexpor
ilegítima
restritas
precisas
bols
deliberada
jose
conduzidos
explicite
retratar
##°3000
partí
psicológico
absorvidas
corporais
lances
suportado
reexaminada
contabilizados
legitimamente
arroz
voluntariado
oitava
desoneração
lacustre
mantenedora
##icomplementar
xavier
bec
dida
fuma
iti
##aer
##landa
##arning
##infra
##ong
##grafe
##aber
##icitação
medição
ficaria
projetado
indig
falecer
incluam
espess
##ásio
tecnolog
they
incorridas
admitem
darf
tornará
eletrobras
numerário
government
difam
acabados
esclareceu
##financiamento
tempestiva
pdv
chamamentos
silvestre
subtraído
27100
sobrevivência
##brasileiro
##apresentação
tropicais
albu
subdivis
inevitável
embriaguez
reconciliação
atmosfera
pendências
infantoju
regeneração
semicond
cnsp
gado
mísseis
riv
sérios
##gest
##risão
##cing
##ineres
seco
commissão
##toriedade
##edis
alinha
repúbl
incin
##harina
teórico
isabel
representações
referirem
atacar
viajante
judiciáriojustiça
##correu
imputação
domest
construído
deferidas
brutos
punidos
incorporador
reservatórios
tipologia
postulou
##éricas
117º
retrato
êxito
127º
asseverando
denunciada
##ianos
reportagem
geneticamente
amparadas
tardar
esquad
coincide
interligado
pgpe
productiv
serventuários
##quaisquer
escalonamento
infundado
macapá
##entorpecentes
fluminense
avos
põe
##uros
##plex
##lógicas
daag
secex
##tipos
estedecreto
supostos
##tivistas
##fice
vicinal
marcar
seguinter
##critos
exercito
febre
menções
arguiu
revisora
america
descrimin
completas
meras
complementa
fortale
operacionalizar
preparações
motivar
variar
defensorias
acabar
ccm
inversa
##º35
##º58
anistiados
##aplica
alheios
aguiar
homoge
compõe
##responsável
##militares
pavilhão
nítida
estagiário
marginais
emgea
inundações
gi
ágio
##ervidor
comand
jura
desag
envas
##corridos
justin
legados
00000
elu
2012emnúmeros
usual
gures
tiros
construída
buscas
simplificar
reuniu
implícita
propulsão
assegurarão
ordenação
ordenador
acessório
viabilizando
transformada
progressivo
consolidando
racionalizar
catal
contingentes
abordada
##atuação
ratificados
pedagógicos
##destinados
applica
##mercadorias
investigatório
servidoras
ingredientes
férrea
decretonº
sôldo
preponderância
walter
reedu
noartigo
##tivado
paraos
osórgãos
aoministério
parques
más
canto
criadores
gravação
loca
##estio
relatorio
devia
utilizá
aprop
jurisdições
contava
banho
capitalismo
concluídas
##cráticos
evang
aparti
versados
americanas
responsabilizado
abate
cobertas
explorados
borda
superando
##competências
explicitando
endereços
domingo
##°49
bomba
mínimas
recepção
deagosto
repete
inventário
##relativas
instrutória
ilicitamente
##possível
thereza
expirar
pacotes
escrutínio
césar
infantojuvenil
ditos
gp
kant
vendedores
##tan
deenergia
doimposto
promiss
proveu
conserva
entendidas
##classe
##duras
und
temor
##ponta
partiu
##ísmo
clín
suplant
mage
regularização
demonstração
preencha
previsibilidade
deliberações
dissociadas
pretensa
piores
103º
debatidos
setecentos
interagir
multiplicado
legitimado
anseios
##ville
jef
insalubres
contemporaneidade
choque
atrasos
revigo
quilômetros
contemporânea
litisconsorte
revolver
adjacentes
quaesquer
insignificante
survey
amon
cio
frança
gig
##pagamento
##3º
##hs
##ífera
##kg
##ôl
deem
##ridad
seeu
estan
prés
##vírus
obtenha
##conv
unesco
carne
##excep
focem
verão
verso
stru
fali
pesquisadas
aplicações
faturas
exceções
cedo
juízas
inadmissíveis
facilitem
inspecionar
fecha
crucial
surgiram
permito
diligências
percebam
170º
dependerão
invalidação
decrédito
aludidos
retomar
health
degradadas
##fiscais
minoria
formulários
frisa
congressonacional
agrupados
grã
arist
vestuário
precauções
congelamento
seguinteredação
##dá
##dencial
##°03
rez
reação
emfa
##anna
notando
namo
oscar
porção
travada
traba
mário
discos
assecu
agido
leicomplementar
referenciais
desenvolva
teórica
ferir
sales
assimil
referiu
comunhão
cnpc
utilizarem
corretivos
##ifique
adicionados
##provido
ocorrerão
federaes
construtora
simplicidade
calúnia
verificará
filtro
geográfico
##despor
mostraram
lanç
democratização
democratização
indicarão
##competentes
desejosos
revogação
resultarem
suportados
atestados
csjt
vejamos
facilitador
cejuscs
londrina
posicionamentos
united
insatisf
minoritários
##último
aj
citou
hí
kar
êstes
##umaz
##iara
##°13
##escência
##cima
dopresente
seplan
inno
adestra
##compre
perdão
paes
pautar
care
puro
ministériopúblico
##rática
desenvolv
0007
centímetros
mag2o
##icídios
cidh
atacam
processualmente
funcionário
obrigam
asseguram
acertada
espécimes
precisos
prorrogadas
persuas
gravame
trancar
##érico
preservando
imputadas
permutar
urugua
subscritor
terapia
frentes
reafirmo
introduzidos
denunciante
##º37
psicológica
irrestri
egestão
traduzir
estendeu
##jurídicas
hierárquicos
cotidiana
abarca
certificação
bingo
computacionais
imperioso
ostensivo
cárcere
travess
peixes
confiscatório
empoderamento
##articulação
albuquer
a4
dêsses
gmf
lã
nanc
##fm
##aça
##yers
deresponsabilidade
dam
##inou
diri
##izá
contos
escap
intol
##ferior
direcionado
monta
##tesouro
necessite
milita
salles
relatou
negociado
mantê
quantificação
transportada
duzentas
provável
escriv
justificados
teóricos
enquadre
flor
##enau
##guarda
numerados
##uaes
contadoria
##atia
motivaram
impressões
precatórias
camar
comprometida
alfredo
endereços
desejarem
sobrestadas
##º57
destinações
esquecer
felicidade
coronavírus
inovador
rescindendo
blum
##correspondentes
pesqueiro
##pessoas
products
intentadas
ocupe
a3
od
##pula
deassistência
coag
dodistrito
prouni
##sociais
##izadores
contumaz
desist
desle
sont
tradições
##amá
teremos
constituída
##catego
artigoanterior
você
servirão
consideramos
##legisla
mutatis
##ubse
exigirem
patrul
diferenciar
reexportação
municipio
obrigatórios
envolveram
percentagens
converte
colunas
residuais
consumidora
institucionalização
reforçar
preenchida
couro
questionados
incumbirá
corregedora
terminologia
dividindo
formulou
114o
167º
majorante
##º39
##autoridades
##institucional
desconhecimento
vizinh
victor
intérpretes
despezas
##hipóteses
edoc
vocábulo
##queline
workshop
dd
ocumprimento
pio
##ugn
##dina
##́ra
##̂neas
##ciário
readequ
daatribuição
nato
esteio
art2º
osc
apátri
peloministério
aust
comoda
cumpl
##coleg
competição
autorizará
contribuído
essência
vapor
incluído
classista
orientadas
cald
exportado
indenizado
compensada
aceitam
prestarem
examinadora
classificações
comprometendo
notificados
considerá
cadastrar
##interpre
benedito
armazenar
ibram
divergência
narrativas
natalidade
inaugural
publicitárias
pndr
pautado
desarrazo
##anteriormente
dedicados
paradox
concepções
##individual
querelante
emrelação
simból
policy
diamantes
zee
ân
##uca
cotista
quím
involu
need
##ters
prazer
seguiram
centenário
utilidades
avaliando
substitua
corredores
interpretadas
expressivos
##tocolo
##̂nimo
excelente
fábricas
gilson
integralizado
proname
mandatários
tempus
enfrenta
ameaças
acionar
incongru
ofereça
similaridade
ideológicos
frustra
satisfatoriamente
transformações
padronizar
##organizações
prolatadas
##adire
qualitativas
sugerindo
explicativas
déficit
açúcares
fisicamente
tôda
retributivas
movimentações
legítima
##teráp
prematura
cív
pavimentação
aclaratórios
toxic
quarentena
ão
axi
##fc
##didos
##çõ
##2a
defere
docência
conci
inabil
inabilitação
nacionaes
sumul
aser
##çadas
##tezas
impõem
direcionar
caribe
teríamos
##ants
value
##portu
about
ministérioda
lojas
inspec
segre
sajud
veremos
atribuiu
nua
dispôs
nomeada
asseguintes
alimentares
excelências
reforço
private
ofertada
obstada
comete
representaria
imotivada
##objeto
imputar
##empregados
[...]
